<unk>	0
<s>	0
</s>	0
<pad>	0
.	-2.79533
,	-3.39944
▁the	-3.98157
s	-3.98759
▁-	-4.33828
'	-4.37069
?	-4.40829
▁to	-4.57736
▁I	-4.58953
▁of	-4.60287
▁att	-4.82595
t	-4.94542
▁and	-4.94852
▁a	-4.94995
▁och	-4.96004
▁är	-4.96091
▁	-4.96288
▁you	-4.96374
▁in	-4.97346
▁i	-5.01451
▁det	-5.1407
▁för	-5.25325
!	-5.27374
▁av	-5.28752
▁som	-5.29253
▁inte	-5.38217
▁en	-5.3994
▁that	-5.41956
▁Jag	-5.4718
▁is	-5.54928
▁på	-5.57076
▁du	-5.58212
▁it	-5.6172
▁for	-5.61781
▁med	-5.62997
-	-5.6313
▁jag	-5.68074
▁till	-5.68884
▁har	-5.69851
...	-5.72258
▁be	-5.72487
▁den	-5.76837
▁om	-5.77033
▁on	-5.78232
en	-5.82338
▁(	-5.84247
)	-5.86322
▁Det	-5.88199
▁de	-5.92781
▁this	-6.02502
a	-6.03657
m	-6.05897
▁with	-6.06985
▁You	-6.09716
re	-6.13277
▁not	-6.14378
▁have	-6.14791
:	-6.19178
▁me	-6.19799
▁are	-6.21702
▁we	-6.22421
▁vi	-6.22669
▁ett	-6.26392
er	-6.29097
▁The	-6.30564
▁kan	-6.34996
d	-6.38862
▁was	-6.42934
▁här	-6.44637
▁mig	-6.44836
▁var	-6.45743
ing	-6.48355
▁by	-6.51551
▁dig	-6.51827
▁your	-6.54065
▁as	-6.5502
▁do	-6.55602
▁Du	-6.56507
n	-6.56548
▁It	-6.57953
▁så	-6.58201
▁or	-6.5855
▁Vi	-6.599
▁my	-6.60661
▁ska	-6.62945
▁all	-6.63264
▁can	-6.63521
e	-6.66714
▁eller	-6.6691
▁know	-6.67422
r	-6.67757
▁No	-6.68625
▁We	-6.71787
▁at	-6.74503
▁"	-6.7902
▁what	-6.8117
▁an	-6.81722
ll	-6.81989
▁he	-6.83037
▁out	-6.83232
▁from	-6.83346
▁What	-6.85173
▁just	-6.87212
▁will	-6.90041
▁kommer	-6.90829
▁like	-6.91193
▁från	-6.91974
▁man	-6.92368
▁don	-6.9347
▁han	-6.95163
ed	-6.95964
ar	-6.96865
▁up	-6.97037
▁måste	-6.97837
▁which	-6.98164
▁here	-6.98536
▁vill	-6.98829
▁about	-7.01256
▁there	-7.06805
▁one	-7.0792
▁right	-7.07921
▁And	-7.09017
et	-7.09383
▁get	-7.09878
▁they	-7.10012
▁but	-7.10399
▁ni	-7.11109
▁men	-7.11262
▁has	-7.11848
▁He	-7.13556
▁under	-7.14146
▁Vad	-7.14155
▁Han	-7.14671
▁skulle	-7.14704
▁no	-7.15088
▁so	-7.16135
▁him	-7.16331
▁European	-7.16636
/	-7.1695
ve	-7.18309
▁been	-7.1902
▁That	-7.19659
▁De	-7.2064
▁vara	-7.21539
▁should	-7.22218
▁bara	-7.22617
▁if	-7.22685
▁shall	-7.2297
;	-7.23416
▁go	-7.24632
▁would	-7.27161
▁där	-7.2718
▁skall	-7.27358
▁A	-7.27471
▁ha	-7.2761
▁ut	-7.2792
▁Commission	-7.28066
▁vad	-7.28595
▁This	-7.28623
na	-7.2901
▁detta	-7.29986
de	-7.30191
▁1	-7.30464
▁Article	-7.3108
▁nu	-7.31563
▁her	-7.34393
▁want	-7.34673
▁think	-7.35106
▁vet	-7.3556
▁sig	-7.3616
▁got	-7.36548
▁när	-7.37598
▁time	-7.38113
▁alla	-7.38846
▁honom	-7.40151
▁får	-7.40181
▁min	-7.40287
▁Mr	-7.41751
▁In	-7.44033
▁oss	-7.45648
▁upp	-7.47002
▁now	-7.472
▁were	-7.47358
▁Oh	-7.47499
▁us	-7.47729
y	-7.48795
▁Men	-7.49066
▁göra	-7.4921
▁more	-7.49933
▁our	-7.50533
▁dem	-7.5293
▁gör	-7.53015
▁his	-7.53647
▁er	-7.55005
▁EU	-7.55128
▁see	-7.55291
▁need	-7.55366
▁them	-7.55586
▁other	-7.55904
▁Regulation	-7.56379
▁Och	-7.56471
▁who	-7.57029
ly	-7.57994
▁But	-7.58334
▁andra	-7.58468
▁Member	-7.58509
▁L	-7.59611
▁Om	-7.60702
▁back	-7.60916
▁take	-7.61071
▁Den	-7.61465
▁din	-7.62636
▁So	-7.62842
▁she	-7.62969
▁över	-7.6352
▁their	-7.644
▁vid	-7.65698
▁än	-7.65941
▁had	-7.66223
▁gonna	-7.66335
▁Nej	-7.6634
▁must	-7.66519
▁when	-7.66575
▁Well	-7.6743
▁going	-7.67788
▁mycket	-7.67958
▁Yeah	-7.68612
▁down	-7.68626
▁Ja	-7.69054
▁ta	-7.69107
S	-7.69297
▁också	-7.7011
▁any	-7.70169
▁efter	-7.70284
▁2	-7.70427
▁good	-7.70602
▁s	-7.70746
▁did	-7.71418
▁some	-7.71835
▁En	-7.72064
▁då	-7.72399
▁För	-7.7287
o	-7.73506
▁into	-7.73585
▁hade	-7.74305
▁hon	-7.74908
▁artikel	-7.75413
▁denna	-7.75777
▁make	-7.75862
▁finns	-7.76596
▁They	-7.76985
▁also	-7.783
▁way	-7.78814
▁could	-7.78851
in	-7.79182
▁få	-7.79253
▁förordning	-7.79358
▁mot	-7.79384
erna	-7.79403
▁States	-7.80355
▁only	-7.80469
▁bra	-7.80755
▁than	-7.81718
▁nr	-7.81787
▁say	-7.81832
▁se	-7.81904
▁Council	-7.82804
"	-7.83344
▁hur	-7.83352
▁If	-7.83353
i	-7.8433
EC	-7.8485
▁these	-7.86475
▁come	-7.87165
▁genom	-7.87203
▁She	-7.87349
▁over	-7.8742
▁very	-7.8799
EG	-7.88373
▁Är	-7.88667
▁3	-7.8901
▁allt	-7.8944
▁people	-7.89572
▁–	-7.89612
▁Europeiska	-7.89623
▁C	-7.90002
▁kommissionen	-7.90116
▁How	-7.90288
▁Hur	-7.911
▁may	-7.91296
▁where	-7.9132
▁There	-7.91713
▁its	-7.9173
▁Hon	-7.9199
▁sa	-7.92315
▁how	-7.92517
▁S	-7.93594
g	-7.9487
▁Union	-7.95202
es	-7.95667
▁information	-7.95934
▁tror	-7.96366
▁mer	-7.96516
▁henne	-7.98293
▁dessa	-7.99019
▁something	-7.99641
▁those	-7.99849
▁inom	-7.99993
▁All	-8.00231
’	-8.00892
▁år	-8.02184
▁Hey	-8.03549
▁tell	-8.03685
▁bör	-8.04023
▁Så	-8.04527
▁am	-8.04568
▁igen	-8.04589
▁two	-8.05008
▁too	-8.05058
▁Do	-8.05443
c	-8.05718
▁går	-8.06344
b	-8.06409
▁said	-8.07069
or	-8.07127
]	-8.07508
▁work	-8.07868
▁behöver	-8.07892
▁p	-8.09355
▁utan	-8.0942
▁didn	-8.09538
."	-8.09624
▁något	-8.09824
▁new	-8.10775
▁två	-8.10998
▁first	-8.11279
an	-8.11479
▁gäller	-8.11715
▁President	-8.11812
al	-8.12006
A	-8.12011
I	-8.13198
▁really	-8.13227
▁gå	-8.13361
▁[	-8.13608
▁Ni	-8.13978
▁Come	-8.14927
▁enligt	-8.1524
▁Var	-8.15367
▁bli	-8.15516
▁Okay	-8.16146
▁such	-8.16326
▁made	-8.16339
▁mean	-8.16413
▁5	-8.16557
▁because	-8.17192
▁off	-8.17752
▁little	-8.18033
▁mellan	-8.18061
▁Community	-8.1812
▁then	-8.18183
▁10	-8.19768
▁4	-8.20888
▁never	-8.21153
▁B	-8.21321
▁blir	-8.21707
▁ingen	-8.21766
▁before	-8.22149
l	-8.22201
▁problem	-8.22307
▁sin	-8.22329
▁Parliament	-8.22342
▁much	-8.22978
▁look	-8.23163
▁let	-8.23315
▁Let	-8.23592
▁När	-8.23855
▁Kom	-8.23861
▁use	-8.23891
▁nåt	-8.23941
▁ser	-8.2425
▁My	-8.24612
▁kom	-8.24684
▁Why	-8.24744
k	-8.25245
▁last	-8.25281
▁Don	-8.25802
▁lite	-8.25823
▁sätt	-8.26178
▁Yes	-8.26544
▁mitt	-8.27128
▁God	-8.27963
▁Har	-8.28574
▁well	-8.28814
▁give	-8.29022
▁aldrig	-8.29759
▁ju	-8.29856
▁tar	-8.29904
▁även	-8.30135
▁even	-8.30218
▁thing	-8.30441
▁report	-8.30507
▁Okej	-8.30777
▁rätt	-8.30882
▁dag	-8.3097
Jag	-8.31161
▁någon	-8.31609
▁Artikel	-8.32275
▁years	-8.32599
▁säga	-8.3302
▁day	-8.33318
▁still	-8.33373
▁hand	-8.34357
▁between	-8.34443
▁Where	-8.34908
▁after	-8.3505
▁Just	-8.35278
▁help	-8.35345
▁find	-8.35526
▁fram	-8.35589
ning	-8.35653
▁Varför	-8.35704
▁kanske	-8.35947
▁why	-8.36175
▁%	-8.36492
▁första	-8.37079
▁doing	-8.37517
▁åt	-8.37735
▁For	-8.38173
▁väl	-8.3825
▁gjorde	-8.38266
▁'	-8.38436
▁beslut	-8.38714
▁fråga	-8.39333
▁does	-8.39433
▁tillbaka	-8.39461
▁being	-8.39836
▁ge	-8.40466
▁place	-8.41062
p	-8.41939
▁20	-8.42589
▁säger	-8.42615
▁Now	-8.43003
▁Tack	-8.43367
▁E	-8.43775
▁believe	-8.43802
ade	-8.44133
▁system	-8.44336
C	-8.45098
▁countries	-8.45397
arna	-8.45468
▁fall	-8.45575
▁Nu	-8.45808
▁varit	-8.45808
▁några	-8.4584
▁re	-8.46583
▁del	-8.47103
▁put	-8.4738
▁love	-8.47809
▁Detta	-8.47979
▁point	-8.4824
▁again	-8.48264
▁hela	-8.48323
▁Hej	-8.485
▁inget	-8.4912
▁used	-8.49348
▁kunna	-8.49508
▁Directive	-8.49543
▁life	-8.50426
▁fick	-8.50618
▁measures	-8.50662
▁long	-8.51115
▁through	-8.51149
▁direktiv	-8.51493
▁åtgärder	-8.51548
▁same	-8.51659
▁call	-8.52054
▁därför	-8.5207
▁order	-8.52147
▁enlighet	-8.52356
▁okay	-8.52391
▁far	-8.52742
▁hans	-8.52965
▁sorry	-8.53223
▁vår	-8.53258
▁punkt	-8.53331
▁part	-8.53462
▁sure	-8.53509
▁6	-8.53665
▁Kan	-8.54524
▁sir	-8.54771
▁State	-8.54796
▁kunde	-8.55766
▁hit	-8.55844
▁...	-8.56244
▁medlemsstaterna	-8.56387
man	-8.57035
▁tid	-8.5704
▁15	-8.57234
▁case	-8.57249
▁o	-8.57272
▁set	-8.57275
▁better	-8.57646
▁följande	-8.58272
▁Ta	-8.58334
▁anything	-8.58709
ande	-8.59244
▁komma	-8.5984
▁nya	-8.59923
▁särskilt	-8.59994
▁Europe	-8.6004
▁stöd	-8.60045
nde	-8.60112
▁market	-8.60262
▁borde	-8.60358
▁products	-8.60464
▁own	-8.60548
▁Are	-8.60561
▁within	-8.60673
▁home	-8.60694
▁30	-8.61165
▁K	-8.61431
▁year	-8.61464
▁Thank	-8.61483
▁Not	-8.61644
B	-8.61932
▁thought	-8.62456
▁många	-8.62647
▁Look	-8.62839
D	-8.62862
▁name	-8.62869
▁F	-8.63017
▁Who	-8.63304
▁talk	-8.63486
▁O	-8.63646
▁following	-8.63782
▁Annex	-8.63955
▁7	-8.63979
▁hos	-8.64014
▁själv	-8.64045
▁samma	-8.64696
▁tre	-8.64816
▁mina	-8.64854
▁As	-8.64993
),	-8.65224
▁Get	-8.65225
▁vilket	-8.65558
▁ditt	-8.65873
it	-8.65894
▁sina	-8.66162
▁important	-8.66391
h	-8.6753
▁away	-8.67795
▁Inte	-8.67893
▁Herr	-8.67928
▁gjort	-8.68177
▁particular	-8.68292
2	-8.68412
▁great	-8.68447
▁accordance	-8.68621
▁night	-8.68948
▁son	-8.69333
▁nån	-8.69341
▁Can	-8.69581
▁rådets	-8.69682
▁deras	-8.69833
se	-8.69885
▁three	-8.69945
▁P	-8.70325
▁barn	-8.70614
ad	-8.70965
▁sen	-8.71012
▁course	-8.71057
▁things	-8.71057
▁12	-8.71159
▁nog	-8.7122
▁To	-8.71442
▁without	-8.71512
Det	-8.7158
▁D	-8.7187
▁”	-8.71995
▁T	-8.72017
▁8	-8.72078
on	-8.72274
at	-8.724
▁regard	-8.72587
ta	-8.72738
T	-8.72923
▁ner	-8.72987
▁many	-8.7302
▁always	-8.73189
▁Go	-8.73237
▁around	-8.73504
▁varje	-8.73706
▁policy	-8.7379
▁bad	-8.73962
▁support	-8.74143
▁done	-8.74358
▁number	-8.74365
▁unionen	-8.7439
▁gång	-8.74483
▁eftersom	-8.74599
▁Man	-8.74629
▁told	-8.74979
▁When	-8.75136
▁vissa	-8.75137
▁alltid	-8.75174
▁helt	-8.75184
▁Min	-8.7575
▁redan	-8.76378
▁‘	-8.76601
▁national	-8.76612
▁kommissionens	-8.76629
▁world	-8.77055
▁against	-8.77281
te	-8.77309
F	-8.77348
▁Your	-8.77944
▁—	-8.78192
▁each	-8.78387
▁Committee	-8.78518
▁data	-8.78532
▁most	-8.78603
▁samt	-8.78789
ers	-8.7891
▁land	-8.78916
▁våra	-8.79078
as	-8.79189
▁Good	-8.79527
▁På	-8.7956
ra	-8.79599
▁Vem	-8.79774
▁already	-8.79911
▁liv	-8.80095
▁period	-8.80317
▁ever	-8.80661
▁both	-8.81048
▁fel	-8.81068
▁kind	-8.81077
▁guy	-8.81245
▁Då	-8.8136
f	-8.81444
▁means	-8.8157
▁rådet	-8.81662
▁annat	-8.81807
▁keep	-8.8192
▁risk	-8.81974
▁mg	-8.8202
▁end	-8.82161
ation	-8.82164
▁verkligen	-8.82392
▁referred	-8.82683
--	-8.82835
▁per	-8.8284
▁ville	-8.82873
▁won	-8.83299
▁question	-8.83503
▁THE	-8.83593
P	-8.83672
▁hem	-8.83755
▁money	-8.83841
▁another	-8.83984
▁therefore	-8.84116
are	-8.84116
▁sitt	-8.84252
▁aid	-8.84314
▁bättre	-8.84389
▁nothing	-8.84713
▁found	-8.84872
▁feel	-8.85213
▁talman	-8.85259
▁1.	-8.8537
▁känner	-8.85515
▁lot	-8.85799
to	-8.85869
▁might	-8.85978
▁G	-8.85988
ic	-8.86347
▁taken	-8.86366
us	-8.86396
▁human	-8.86456
▁situation	-8.86669
▁provided	-8.86989
▁country	-8.87095
▁Som	-8.87281
▁today	-8.87405
▁ask	-8.875
▁car	-8.87567
_	-8.87731
▁Ett	-8.87762
▁25	-8.88164
▁please	-8.88173
▁public	-8.88192
▁annan	-8.88331
▁every	-8.8835
▁Europaparlament	-8.8865
▁real	-8.88799
K	-8.88847
▁person	-8.88976
▁Decision	-8.8898
▁social	-8.89065
th	-8.89807
▁e	-8.90044
▁M	-8.9014
▁förslag	-8.90483
▁l	-8.90552
▁ger	-8.90712
▁certain	-8.91141
▁c	-8.91174
▁grund	-8.91417
▁innan	-8.92277
▁fortfarande	-8.92285
▁budget	-8.92286
▁bort	-8.93048
▁11	-8.93083
▁Treaty	-8.93143
le	-8.93177
▁necessary	-8.93202
▁stor	-8.93261
▁9	-8.93327
▁18	-8.93423
­	-8.93555
▁dess	-8.93667
▁blev	-8.93741
ens	-8.93898
N	-8.9406
▁Låt	-8.94437
▁old	-8.9473
▁guys	-8.94824
▁står	-8.95075
G	-8.95166
▁start	-8.95329
▁everything	-8.95458
▁tog	-8.95462
▁såg	-8.95509
”	-8.95538
EEG	-8.95858
EEC	-8.9603
be	-8.96043
▁understand	-8.96163
▁R	-8.96351
v	-8.96521
▁fact	-8.96733
(	-8.96801
▁Did	-8.96869
▁fucking	-8.96898
ion	-8.97014
▁financial	-8.9713
j	-8.97286
▁next	-8.97393
▁coming	-8.97486
▁g	-8.97538
▁together	-8.97648
▁leave	-8.97756
▁left	-8.97798
▁14	-8.97824
▁anges	-8.97988
▁Be	-8.97999
▁Se	-8.98191
▁form	-8.98544
▁possible	-8.98547
▁doesn	-8.98764
▁b	-8.98909
▁second	-8.99028
▁_	-8.99035
la	-8.99037
▁Europa	-8.99038
▁bilaga	-8.99068
▁rules	-8.99077
▁fast	-8.99155
▁H	-8.99328
▁sedan	-8.99329
▁ur	-8.99363
▁stop	-8.99435
▁fan	-8.99553
▁level	-8.9967
▁gemensamma	-8.9975
▁II	-8.99786
▁hear	-9.00043
▁whole	-9.00279
▁anser	-9.0032
ie	-9.00446
▁väg	-9.00505
▁företag	-9.00817
▁Att	-9.01094
▁best	-9.01389
▁plan	-9.01617
▁import	-9.01691
▁wanted	-9.01785
▁matter	-9.01822
▁prata	-9.01919
▁enough	-9.01989
▁kill	-9.02013
▁hjälp	-9.02195
▁Then	-9.02512
▁Vill	-9.02558
▁mamma	-9.02561
E	-9.02638
M	-9.0277
▁t	-9.02865
▁care	-9.02916
▁gemenskapen	-9.0293
▁common	-9.0312
▁least	-9.03303
is	-9.03591
▁development	-9.03982
▁Med	-9.03998
▁un	-9.04074
▁pappa	-9.04135
▁respect	-9.04161
▁olika	-9.04172
▁vilja	-9.04266
▁vilka	-9.04327
för	-9.04675
▁full	-9.0481
▁dina	-9.04991
▁talking	-9.05093
▁europeiska	-9.05094
▁veta	-9.05155
▁hope	-9.05402
▁authorities	-9.05564
▁sex	-9.05578
▁ensure	-9.05592
▁hell	-9.05661
▁house	-9.0576
▁wrong	-9.05834
▁avses	-9.05844
▁economic	-9.059
▁euro	-9.0603
▁N	-9.06229
H	-9.06567
da	-9.06621
▁hjälpa	-9.06623
▁ny	-9.06731
▁ekonomiska	-9.06771
▁show	-9.06899
el	-9.07154
▁älskar	-9.07358
▁Ska	-9.07503
▁dead	-9.07548
▁Please	-9.0755
▁different	-9.07697
1	-9.07763
▁sett	-9.07881
▁längre	-9.07948
▁since	-9.07949
▁folk	-9.08311
▁concerned	-9.0839
▁happened	-9.08418
▁enda	-9.08589
▁cannot	-9.08631
▁conditions	-9.08678
▁Maybe	-9.0908
▁came	-9.09084
▁V	-9.09099
▁Hi	-9.09113
▁shit	-9.09474
▁19	-9.0963
▁clear	-9.09675
▁frågor	-9.09723
▁during	-9.09756
▁unionens	-9.09813
▁big	-9.09918
▁möjligt	-9.10231
het	-9.10427
▁17	-9.10444
▁före	-9.10491
▁Här	-9.10563
▁working	-9.10959
▁Mrs	-9.10974
▁beaktande	-9.11102
▁håller	-9.11187
▁16	-9.1125
▁job	-9.11271
▁mind	-9.11274
▁uppgifter	-9.11354
able	-9.11468
▁transport	-9.11479
▁13	-9.11512
▁21	-9.11589
▁One	-9.11601
▁Ingen	-9.11889
▁girl	-9.11889
3	-9.12065
u	-9.12205
BAR	-9.12233
▁proposal	-9.12376
▁Alla	-9.12447
L	-9.12465
▁given	-9.1252
▁third	-9.12551
▁länge	-9.12749
ets	-9.12788
ton	-9.12797
▁medlemsstater	-9.12881
▁nationella	-9.12926
▁gick	-9.1295
▁Ge	-9.12978
ter	-9.13067
▁trodde	-9.13402
▁100	-9.13434
▁taking	-9.13486
▁24	-9.13538
▁OJ	-9.13586
▁31	-9.1375
▁paragraph	-9.13754
▁menar	-9.14106
▁force	-9.14453
▁okej	-9.145
▁tycker	-9.14537
R	-9.14551
▁basis	-9.14587
▁On	-9.14922
▁slut	-9.15029
▁while	-9.15036
▁förstår	-9.15241
▁trying	-9.15408
▁vem	-9.15689
▁Denna	-9.1597
▁An	-9.15982
▁händer	-9.16022
▁decision	-9.16048
▁22	-9.16055
▁control	-9.16271
▁else	-9.16396
▁50	-9.16408
▁father	-9.16536
ity	-9.16572
▁having	-9.16629
ne	-9.16704
▁Bra	-9.16735
▁tänker	-9.16785
▁few	-9.16813
▁döda	-9.16851
▁yet	-9.16889
▁fine	-9.17085
▁remember	-9.17091
▁seen	-9.1713
▁Gud	-9.1728
▁change	-9.17733
▁including	-9.17797
▁getting	-9.18019
▁until	-9.18072
▁area	-9.18136
the	-9.18161
ig	-9.18167
▁stora	-9.18262
ment	-9.1833
▁looking	-9.1861
▁position	-9.18687
▁mål	-9.18753
▁idea	-9.18867
▁OF	-9.18868
▁kvar	-9.18956
▁rights	-9.18966
▁Here	-9.19073
▁days	-9.19372
▁Re	-9.19412
▁account	-9.19655
z	-9.19914
▁able	-9.2
▁once	-9.2013
▁head	-9.20337
▁stay	-9.20404
▁view	-9.2072
".	-9.20857
▁Din	-9.2094
▁high	-9.20966
▁law	-9.20982
▁someone	-9.20985
▁länder	-9.21167
ex	-9.21354
▁fått	-9.21571
▁sak	-9.21644
▁namn	-9.21716
▁called	-9.21738
▁patients	-9.21772
▁family	-9.22263
lig	-9.22345
▁fuck	-9.22537
▁Hav	-9.22623
▁open	-9.22633
▁människor	-9.22686
▁friend	-9.22789
▁saker	-9.22814
ry	-9.22841
▁application	-9.22894
▁future	-9.23062
▁död	-9.23181
▁wanna	-9.23303
ut	-9.23357
ering	-9.23364
▁general	-9.23397
x	-9.23468
▁present	-9.2358
▁appropriate	-9.2359
▁provisions	-9.23707
▁Or	-9.23841
▁Dr	-9.23854
▁yourself	-9.23874
▁baby	-9.2403
▁play	-9.24044
O	-9.24166
▁utveckling	-9.24184
▁business	-9.24206
▁Because	-9.24236
▁varför	-9.24422
▁live	-9.24472
▁less	-9.24678
▁direkt	-9.24687
▁roll	-9.24804
▁date	-9.25079
▁million	-9.25181
ligt	-9.25241
ge	-9.25269
di	-9.25518
ka	-9.25564
▁parlamentet	-9.25729
▁room	-9.25827
▁saw	-9.25932
▁nej	-9.25951
▁k	-9.26005
▁inga	-9.26046
▁bring	-9.26446
▁took	-9.26524
ia	-9.2657
▁Kommissionen	-9.26868
▁heard	-9.26884
▁meet	-9.26896
▁wait	-9.27049
▁bit	-9.27143
iska	-9.27164
▁New	-9.27219
▁marknaden	-9.27257
▁process	-9.27295
▁2.	-9.27467
▁procedure	-9.27484
▁pengar	-9.27543
▁months	-9.27738
▁viktigt	-9.27771
▁services	-9.27828
▁whether	-9.2783
Vad	-9.2787
▁At	-9.27897
▁issue	-9.2795
va	-9.27984
▁Of	-9.28083
up	-9.28194
▁ex	-9.28318
▁gotta	-9.28325
▁security	-9.28438
liga	-9.28584
▁run	-9.2871
▁protection	-9.28767
▁product	-9.28795
▁ja	-9.28939
▁However	-9.29057
co	-9.29259
▁specific	-9.29326
▁political	-9.29352
▁Right	-9.29574
▁precis	-9.2958
▁export	-9.29723
ling	-9.29846
▁try	-9.29943
▁action	-9.30066
▁gillar	-9.30095
Du	-9.30188
ant	-9.30383
▁ago	-9.30668
▁special	-9.30677
▁test	-9.30731
▁went	-9.30807
▁dock	-9.31012
▁deal	-9.31135
▁isn	-9.31151
▁thank	-9.31219
sk	-9.31233
▁28	-9.31291
▁visste	-9.3137
4	-9.31672
▁water	-9.31676
▁yeah	-9.31783
em	-9.31811
▁tro	-9.31892
▁move	-9.31916
▁mother	-9.32002
ro	-9.32009
▁nice	-9.32024
▁vårt	-9.32359
▁hennes	-9.32406
▁actually	-9.32441
▁hitta	-9.32617
EU	-9.32659
▁programme	-9.32685
▁agreement	-9.32703
ma	-9.32787
▁vilken	-9.33134
▁f	-9.33308
▁tillsammans	-9.33356
▁va	-9.33438
▁endast	-9.33438
▁wasn	-9.33495
▁sådana	-9.33519
▁&	-9.33618
▁vän	-9.33699
▁morgon	-9.33728
▁These	-9.33751
▁m	-9.33892
▁produkter	-9.34046
il	-9.3408
▁blood	-9.34213
▁women	-9.34293
▁ordförande	-9.34541
om	-9.34556
▁ligger	-9.34612
▁Uh	-9.34642
▁amended	-9.34778
▁uh	-9.34833
▁subject	-9.35059
▁resolution	-9.35517
▁international	-9.35603
▁flera	-9.35616
▁boy	-9.35703
den	-9.35915
▁tack	-9.36164
▁Commissioner	-9.36367
▁line	-9.36565
▁cooperation	-9.36608
▁Gör	-9.36623
▁apply	-9.36645
▁adopted	-9.36658
▁debate	-9.36666
▁further	-9.3679
▁free	-9.36926
▁saying	-9.37009
▁använda	-9.37152
▁side	-9.3717
▁tredje	-9.37215
5	-9.37239
ch	-9.3725
▁trade	-9.37277
▁berörda	-9.37495
▁Vet	-9.37657
▁miljoner	-9.37729
▁tiden	-9.37843
▁hoppas	-9.38012
▁opinion	-9.38245
▁food	-9.38252
▁body	-9.38276
▁non	-9.38313
▁23	-9.3847
▁wish	-9.38566
▁See	-9.3857
▁requirements	-9.38574
▁knew	-9.38602
▁United	-9.38715
▁sent	-9.38961
▁maybe	-9.39033
▁skäl	-9.39073
▁rättigheter	-9.39126
▁power	-9.3913
▁bästa	-9.39267
▁fru	-9.39304
▁May	-9.39308
▁patienter	-9.3964
▁verkar	-9.39686
▁dog	-9.39947
▁2004	-9.40072
▁heter	-9.40096
▁0	-9.40204
▁mindre	-9.40213
▁27	-9.40389
▁EUR	-9.40495
▁OK	-9.40567
▁Under	-9.40647
▁betänkande	-9.40729
▁sagt	-9.4078
▁rum	-9.40837
▁försöker	-9.40938
▁killed	-9.41046
▁Agreement	-9.41066
▁group	-9.41082
▁kraft	-9.41137
▁morning	-9.41178
▁legal	-9.41183
ur	-9.41234
▁Jo	-9.41325
▁Till	-9.41342
ty	-9.41556
▁2000	-9.41631
Ja	-9.41997
é	-9.42048
▁tidigare	-9.42154
▁pay	-9.42184
▁wouldn	-9.42202
des	-9.42285
▁arbete	-9.42427
▁face	-9.42443
▁d	-9.42483
▁children	-9.42618
▁die	-9.42674
land	-9.42675
▁delar	-9.42819
▁Bara	-9.43037
–	-9.43066
▁provide	-9.43077
▁först	-9.43102
ting	-9.43107
ine	-9.43194
▁hålla	-9.43368
▁berätta	-9.43397
▁glad	-9.4348
▁result	-9.43641
▁29	-9.43793
▁lika	-9.43803
▁frågan	-9.44093
▁making	-9.4422
▁hard	-9.44326
▁december	-9.44335
▁2006	-9.44417
▁världen	-9.44571
▁ännu	-9.44714
▁school	-9.4476
▁lämna	-9.44849
▁säker	-9.44861
▁available	-9.44931
▁emot	-9.44975
ns	-9.45082
▁visa	-9.4516
▁December	-9.45231
▁light	-9.45272
▁reason	-9.45322
▁health	-9.45394
▁ytterligare	-9.45582
▁ready	-9.45631
am	-9.45652
▁kväll	-9.45819
▁Förlåt	-9.45903
▁4.	-9.45923
▁26	-9.46044
▁Take	-9.46058
ska	-9.46163
ate	-9.46238
▁alone	-9.4629
der	-9.46363
▁Sa	-9.46626
era	-9.46659
▁bland	-9.46751
▁miss	-9.46792
▁inför	-9.46795
▁Därför	-9.4701
▁woman	-9.47031
▁John	-9.47067
▁bestämmelser	-9.47352
▁production	-9.4744
▁kontroll	-9.47539
▁hör	-9.47614
6	-9.47699
▁ändringsförslag	-9.47744
▁Där	-9.47813
▁borta	-9.47834
▁Jack	-9.47836
▁faktiskt	-9.47892
Vi	-9.479
▁2003	-9.48025
son	-9.48057
▁handlar	-9.48081
10	-9.48094
▁guess	-9.48126
▁Allt	-9.48185
▁needs	-9.48208
▁Have	-9.484
▁större	-9.48432
▁applicable	-9.48693
▁herr	-9.48835
▁snart	-9.48886
▁soon	-9.4889
▁turn	-9.49059
▁personer	-9.49084
est	-9.49125
▁With	-9.49245
▁framför	-9.49273
▁concerning	-9.49279
▁40	-9.49312
pa	-9.49476
▁example	-9.49525
ol	-9.49564
▁sista	-9.49571
▁type	-9.49631
▁ute	-9.49687
▁relevant	-9.49705
▁list	-9.49829
▁treatment	-9.49969
▁gav	-9.50007
▁börjar	-9.50101
▁program	-9.50336
mp	-9.50373
▁ledsen	-9.50579
▁laid	-9.50635
▁gone	-9.50644
▁fem	-9.50668
▁pretty	-9.50681
▁myself	-9.50742
▁close	-9.50919
▁heart	-9.51131
▁000	-9.51174
▁rest	-9.51274
▁five	-9.51295
▁energy	-9.51317
▁later	-9.5134
▁either	-9.51477
▁2005	-9.51514
▁låter	-9.51591
▁fight	-9.51656
▁god	-9.51762
▁Visst	-9.51928
00	-9.5212
▁total	-9.52174
▁båda	-9.52279
▁hours	-9.52388
▁vägen	-9.52519
▁check	-9.52525
▁dit	-9.52604
7	-9.52649
▁användning	-9.52982
▁avtal	-9.53093
▁medlemsstat	-9.53104
▁Säg	-9.53125
ja	-9.53196
▁service	-9.53242
▁Al	-9.53432
▁vatten	-9.53508
▁avseende	-9.53522
erade	-9.53804
▁Gå	-9.54032
ist	-9.54086
▁wife	-9.54109
▁minst	-9.54119
▁små	-9.54134
▁Tell	-9.54374
ring	-9.54488
▁Like	-9.54495
▁dom	-9.54566
▁månader	-9.54584
▁behandling	-9.54737
▁hot	-9.54841
ö	-9.5488
▁text	-9.55041
V	-9.55197
ck	-9.55216
▁gemenskaps	-9.55447
▁J	-9.55584
▁true	-9.55652
▁fri	-9.55721
▁small	-9.55815
▁state	-9.55883
%	-9.5591
▁sidan	-9.55912
▁four	-9.55964
▁serious	-9.56063
▁Vänta	-9.56079
▁W	-9.56114
▁hände	-9.56205
ul	-9.56268
▁plats	-9.56342
ga	-9.56355
▁single	-9.564
Nej	-9.56421
▁sector	-9.56458
▁lost	-9.56565
w	-9.56594
men	-9.56607
▁access	-9.56668
▁above	-9.56838
▁Wait	-9.56862
▁Ha	-9.5703
▁party	-9.57183
▁door	-9.57219
▁Åh	-9.57231
▁3.	-9.57254
▁III	-9.57255
▁week	-9.57396
▁rör	-9.57453
▁era	-9.57492
▁ändå	-9.57522
vis	-9.57559
▁blivit	-9.57748
▁tomorrow	-9.57798
▁särskilda	-9.57829
▁träffa	-9.58185
id	-9.58192
▁death	-9.58198
▁Sorry	-9.58222
▁areas	-9.58285
▁haven	-9.58428
▁tillämpas	-9.58523
ies	-9.5858
▁2007	-9.58607
▁read	-9.58655
▁val	-9.58728
▁!	-9.58748
▁fördraget	-9.58754
▁minutes	-9.58803
▁par	-9.58884
▁anyone	-9.58976
and	-9.59235
är	-9.594
▁visar	-9.59411
ger	-9.59451
▁icke	-9.59531
▁Eller	-9.59843
▁väldigt	-9.59919
▁moment	-9.60074
▁pratar	-9.60195
▁tonight	-9.60238
▁procent	-9.60276
gen	-9.60316
▁Hello	-9.605
▁company	-9.605
no	-9.6051
▁jobb	-9.60612
▁hold	-9.60635
▁June	-9.60741
▁politiska	-9.608
▁implementation	-9.60863
▁friends	-9.60867
▁safety	-9.60916
▁dagar	-9.6094
▁kvinnor	-9.60942
▁heller	-9.60946
▁vote	-9.60999
▁chance	-9.61086
▁ml	-9.6111
▁amount	-9.61173
▁value	-9.61207
lo	-9.61312
▁everyone	-9.61332
ary	-9.61344
▁hänsyn	-9.61487
▁drink	-9.61497
▁establishing	-9.61501
▁klart	-9.61644
▁happen	-9.61881
▁makes	-9.61928
ningen	-9.62004
▁brother	-9.62014
▁+	-9.6208
▁höra	-9.62084
▁tala	-9.62147
age	-9.62314
▁Håll	-9.62387
▁myndigheterna	-9.62395
▁anti	-9.62432
▁price	-9.62458
▁quite	-9.62471
▁thinking	-9.625
▁ord	-9.62538
▁verksamhet	-9.62615
▁activities	-9.62621
▁krävs	-9.62621
▁Av	-9.62662
EN	-9.62664
▁haft	-9.6268
▁using	-9.62744
▁fyra	-9.62771
▁Whereas	-9.6281
▁become	-9.62828
▁problems	-9.62877
▁säkert	-9.62995
▁samarbete	-9.63408
▁jävla	-9.63749
▁interest	-9.6375
▁innebär	-9.63828
▁rädd	-9.6385
▁nytt	-9.63874
▁citizens	-9.63914
▁Me	-9.63966
▁ain	-9.64096
▁tag	-9.6422
▁phone	-9.64372
▁material	-9.64388
▁helst	-9.64419
▁ihop	-9.64456
▁happy	-9.6449
▁låta	-9.64499
▁senaste	-9.64558
ci	-9.64592
▁används	-9.64624
▁young	-9.64627
▁based	-9.64794
▁Miss	-9.64867
▁Will	-9.6495
▁energi	-9.64952
▁djur	-9.64986
▁juni	-9.65075
▁senast	-9.65089
▁thereof	-9.65157
▁säkerhet	-9.65162
▁Titta	-9.65245
▁2002	-9.65253
▁bil	-9.65351
▁effect	-9.65482
▁police	-9.65521
▁asked	-9.65632
▁gånger	-9.65664
▁miljö	-9.65716
yl	-9.65753
▁fler	-9.65761
▁probably	-9.65828
▁vänta	-9.65887
▁Sam	-9.65891
▁gas	-9.65931
▁åka	-9.66094
▁says	-9.66219
▁följa	-9.6622
▁pre	-9.66236
▁personal	-9.66255
▁innehåller	-9.66309
▁outside	-9.66312
▁wants	-9.66353
iga	-9.66412
▁villkor	-9.66533
▁House	-9.6657
▁nästa	-9.66572
ken	-9.66699
▁nödvändigt	-9.66725
ke	-9.6687
▁mänskliga	-9.66924
▁gentlemen	-9.66941
W	-9.66955
▁industry	-9.6701
▁dose	-9.67274
ä	-9.67283
▁/	-9.67378
Y	-9.67399
▁increase	-9.67401
▁late	-9.67401
▁doctor	-9.67433
tal	-9.67479
▁senare	-9.67498
▁riktigt	-9.67499
me	-9.67713
▁U	-9.67776
▁hög	-9.67906
▁past	-9.6792
▁established	-9.68171
▁fastställs	-9.68255
"?	-9.68319
ff	-9.68404
▁war	-9.68441
▁1999	-9.68572
▁however	-9.68579
▁medel	-9.68621
▁air	-9.68665
▁Dad	-9.68693
▁terms	-9.68727
▁både	-9.6876
▁ramen	-9.68777
▁fortsätta	-9.68798
▁Listen	-9.68816
▁Efter	-9.68843
av	-9.68847
▁supposed	-9.69196
▁half	-9.69222
▁tänkte	-9.69224
do	-9.69248
▁management	-9.69477
lar	-9.6965
▁Sir	-9.69681
▁Ma	-9.69711
▁word	-9.69731
▁användas	-9.69757
ce	-9.69835
▁stuff	-9.69846
▁required	-9.69854
▁kg	-9.69914
ste	-9.69934
▁lagstiftning	-9.70031
▁Får	-9.7036
▁By	-9.70393
▁timmar	-9.70457
▁kid	-9.7046
▁gave	-9.70487
▁meeting	-9.70547
▁härifrån	-9.70578
▁typ	-9.70606
▁Republic	-9.70678
▁exempel	-9.708
▁samband	-9.70877
▁sociala	-9.71013
▁män	-9.71084
▁fire	-9.71091
▁mr	-9.71201
▁regional	-9.7123
▁sådan	-9.7128
▁vänner	-9.71428
▁Co	-9.71437
▁General	-9.71489
▁listen	-9.71655
▁dagen	-9.71656
▁mat	-9.71702
▁tur	-9.71751
▁post	-9.71883
▁själva	-9.71891
▁framework	-9.72239
ten	-9.72262
▁agree	-9.72437
▁betyder	-9.72633
▁åter	-9.72633
▁långt	-9.72685
▁cases	-9.72846
▁Give	-9.73146
▁börja	-9.73194
ri	-9.73239
▁costs	-9.73459
▁speak	-9.7356
var	-9.73579
▁Na	-9.73586
▁considered	-9.73625
▁lever	-9.73666
▁Ut	-9.73671
▁la	-9.73774
▁liten	-9.73809
▁hands	-9.73818
▁Va	-9.73857
▁Our	-9.73921
▁lägga	-9.73946
▁team	-9.73973
▁egen	-9.74114
▁exactly	-9.74166
▁gemenskapens	-9.74189
▁six	-9.74301
▁svar	-9.74404
▁though	-9.74406
▁nära	-9.74559
▁vidare	-9.74565
▁varandra	-9.74654
▁omfattas	-9.74706
▁yes	-9.74733
▁minuter	-9.74769
▁bar	-9.74773
ner	-9.74856
▁dö	-9.74866
▁continue	-9.74897
▁field	-9.7495
▁minute	-9.74987
▁helvete	-9.74992
▁co	-9.75019
▁role	-9.7511
▁times	-9.75186
▁mår	-9.75214
▁behind	-9.75233
▁authority	-9.75234
▁stort	-9.75325
Enligt	-9.75378
▁Thanks	-9.75462
ive	-9.75523
▁dollar	-9.75753
ör	-9.75819
ier	-9.75968
▁januari	-9.76047
ren	-9.76241
▁brought	-9.76251
▁utgör	-9.76259
▁forward	-9.76368
ng	-9.76372
▁standard	-9.764
▁Kommissionens	-9.76532
▁legislation	-9.76593
▁Fan	-9.76642
ca	-9.76696
▁inside	-9.76705
▁hittade	-9.76767
▁utanför	-9.76797
▁office	-9.76825
▁2001	-9.76848
▁institutions	-9.76873
▁svårt	-9.77081
▁huvud	-9.77224
▁Tror	-9.77242
▁avtalet	-9.77278
▁internationella	-9.77291
▁January	-9.77418
▁answer	-9.77461
ian	-9.77629
▁Jesus	-9.77643
one	-9.77648
▁EGT	-9.77686
ness	-9.77765
nings	-9.77774
▁Dessa	-9.77815
ha	-9.77911
▁La	-9.77942
▁gången	-9.78039
▁ma	-9.78167
▁competent	-9.7825
▁effects	-9.78636
▁2008	-9.78788
▁instrument	-9.78825
▁amendments	-9.78857
▁Ben	-9.78882
▁skapa	-9.78903
▁normal	-9.78906
▁kör	-9.78924
▁Snälla	-9.78927
▁läkemedel	-9.79056
▁talar	-9.79313
▁Court	-9.79369
▁particularly	-9.79455
▁Tom	-9.79463
ft	-9.79474
▁welcome	-9.79483
▁comes	-9.79543
▁antal	-9.79646
▁tagit	-9.7966
J	-9.79696
▁stället	-9.79885
▁dad	-9.80036
▁operation	-9.80069
▁rapporteur	-9.8007
▁worry	-9.80136
aren	-9.80153
igt	-9.80177
▁major	-9.802
▁runt	-9.80226
▁områden	-9.80249
▁huh	-9.80258
▁rate	-9.80286
▁utskottet	-9.80291
▁film	-9.80295
▁dra	-9.80355
▁livet	-9.8036
▁research	-9.80413
OJ	-9.80489
▁request	-9.80554
▁området	-9.80605
▁local	-9.80646
▁grupp	-9.8066
▁reference	-9.80677
?"	-9.80714
▁EUT	-9.80727
▁longer	-9.80822
▁kids	-9.80841
ler	-9.81056
▁undantag	-9.81059
▁Ser	-9.81175
▁Vid	-9.81255
▁hurt	-9.81294
▁väntar	-9.81373
▁lång	-9.81443
▁His	-9.81524
▁couldn	-9.81524
▁avsnitt	-9.81547
▁Bull	-9.81562
orna	-9.81604
▁hus	-9.81786
▁sluta	-9.81846
▁krav	-9.81932
▁juli	-9.81994
U	-9.8206
▁mest	-9.82206
▁hemma	-9.82336
▁known	-9.8235
▁område	-9.82538
ance	-9.8257
▁words	-9.82658
▁behöriga	-9.82694
▁Kanske	-9.82718
▁progress	-9.82852
▁Nothing	-9.82901
▁crazy	-9.82953
▁Vilken	-9.82958
▁nästan	-9.82976
▁jordbruks	-9.82978
▁ses	-9.83022
▁resources	-9.83148
▁quality	-9.83303
▁cool	-9.83358
▁involved	-9.8344
▁watch	-9.83464
▁familj	-9.83523
▁current	-9.83617
▁July	-9.83648
▁animal	-9.83684
▁trust	-9.83742
▁Sen	-9.83779
▁60	-9.83838
▁bo	-9.8385
isk	-9.83942
▁issues	-9.84044
▁town	-9.84052
▁rather	-9.84203
▁Ursäkta	-9.84347
▁följer	-9.84355
▁skydda	-9.8436
▁carried	-9.84434
▁Le	-9.84447
▁stand	-9.84461
per	-9.84464
▁safe	-9.84469
▁ingenting	-9.84544
▁öppna	-9.84569
▁politik	-9.84584
▁Group	-9.84648
▁goes	-9.84704
▁tio	-9.84732
▁tjänster	-9.84789
▁companies	-9.84794
▁Ro	-9.84886
▁syfte	-9.84947
▁needed	-9.84991
▁offer	-9.84995
▁ladies	-9.85019
▁story	-9.852
▁upon	-9.85535
▁inne	-9.85633
▁ned	-9.85668
tor	-9.85715
▁Hör	-9.85739
▁game	-9.85767
os	-9.85773
ated	-9.85832
▁sant	-9.85832
▁di	-9.85846
▁Fuck	-9.85879
▁cut	-9.8593
▁förordningen	-9.86008
▁points	-9.86027
000	-9.86048
▁break	-9.86054
bo	-9.86262
▁truth	-9.86293
▁tillämpning	-9.86431
▁enter	-9.86473
▁animals	-9.86531
▁klarar	-9.86561
▁directive	-9.86563
ti	-9.86596
▁After	-9.86746
0	-9.86751
▁hörde	-9.8678
▁sida	-9.86842
▁kort	-9.86853
um	-9.86954
ism	-9.87105
▁front	-9.87121
▁responsible	-9.87125
▁betänkandet	-9.87213
▁fun	-9.87282
▁AND	-9.87294
▁Herregud	-9.87334
ster	-9.87334
▁skit	-9.87392
ak	-9.87408
▁maj	-9.87429
▁behalf	-9.87506
▁vore	-9.87661
▁visst	-9.87672
sta	-9.87718
▁Y	-9.87817
▁met	-9.87832
▁ansvar	-9.88108
▁beautiful	-9.88119
▁technical	-9.88161
▁weeks	-9.88179
▁eyes	-9.88198
▁started	-9.88208
▁vapen	-9.88264
▁igenom	-9.88303
▁kommit	-9.88321
▁grundläggande	-9.88351
▁nivå	-9.88367
▁ifrån	-9.88406
▁shot	-9.88515
▁directly	-9.88538
▁Inget	-9.88573
▁child	-9.88688
▁organ	-9.88755
Han	-9.89042
▁gun	-9.89091
ER	-9.8911
un	-9.89226
▁ten	-9.89247
▁ber	-9.89302
▁questions	-9.89317
▁include	-9.8936
▁regler	-9.89618
▁relating	-9.89824
▁led	-9.89956
▁final	-9.90161
▁step	-9.902
▁allmänna	-9.90267
▁almost	-9.90451
▁organisation	-9.90474
▁administration	-9.90517
▁afraid	-9.9053
▁government	-9.90587
▁spelar	-9.9064
▁granted	-9.90807
▁mark	-9.90836
li	-9.9086
go	-9.90899
▁road	-9.9094
▁alltså	-9.90943
▁bidrag	-9.90982
▁eat	-9.90985
▁snabbt	-9.91011
▁environmental	-9.91059
▁easy	-9.91082
▁fanns	-9.91118
▁send	-9.91142
ningar	-9.91177
ial	-9.91224
▁hört	-9.91232
▁Mom	-9.91249
▁säkerhets	-9.9139
▁agricultural	-9.91413
▁klar	-9.91496
min	-9.91531
▁Även	-9.91559
▁mor	-9.91655
ium	-9.91713
▁sätta	-9.91723
ko	-9.91743
mo	-9.91748
tar	-9.91773
▁stanna	-9.91804
▁solution	-9.91857
▁illa	-9.91868
▁egna	-9.91877
▁kl	-9.91999
▁sort	-9.92018
▁tänka	-9.92024
11	-9.92042
ley	-9.92134
▁blod	-9.92363
▁internal	-9.92368
▁Stop	-9.92371
▁results	-9.92482
▁mine	-9.92573
▁purpose	-9.92613
▁åker	-9.92693
▁short	-9.927
▁bilen	-9.92735
▁idag	-9.92773
The	-9.92814
▁chans	-9.92869
▁systems	-9.93061
▁return	-9.93079
▁2011	-9.93091
▁sit	-9.93261
▁viktiga	-9.93291
lan	-9.93394
▁bakom	-9.93411
▁prices	-9.93496
▁tacka	-9.93514
▁grundval	-9.93668
▁procedures	-9.9374
▁bestämmelserna	-9.93775
val	-9.93803
▁members	-9.9382
▁sense	-9.93874
▁emellertid	-9.93891
▁sub	-9.93902
▁behov	-9.93913
▁ensam	-9.94022
▁mom	-9.94048
▁lead	-9.94063
▁samtidigt	-9.94074
▁gått	-9.94147
▁viktig	-9.94286
▁principle	-9.94288
▁reform	-9.94351
▁sleep	-9.94392
▁itself	-9.94417
▁couple	-9.94553
▁assessment	-9.94564
▁Tel	-9.94594
▁proposed	-9.94596
ba	-9.94681
pi	-9.94687
led	-9.94807
▁tax	-9.94819
▁main	-9.94954
AL	-9.9496
▁daughter	-9.94971
▁walk	-9.95014
▁training	-9.95047
▁accept	-9.95059
▁dödade	-9.95063
▁å	-9.95096
▁5.	-9.95139
ted	-9.95163
▁Ah	-9.9518
▁increased	-9.95203
▁2009	-9.95233
▁rädda	-9.95282
▁proposals	-9.95395
▁due	-9.95396
▁allow	-9.95442
▁Does	-9.95452
▁York	-9.95534
▁1998	-9.95572
▁lätt	-9.95622
▁additional	-9.95683
▁Sure	-9.9571
kt	-9.95752
▁oktober	-9.95781
▁duty	-9.95796
▁along	-9.95934
▁1997	-9.95973
tro	-9.96003
▁key	-9.96006
▁FÖR	-9.96013
▁spela	-9.96044
▁partner	-9.96108
▁landet	-9.96146
▁Tänk	-9.96178
▁March	-9.96251
▁Some	-9.96381
▁October	-9.96447
You	-9.96461
▁clearly	-9.96485
▁tillräckligt	-9.96517
▁follow	-9.96537
▁parties	-9.96573
▁waiting	-9.96586
▁programmes	-9.96693
▁ursprung	-9.96722
vi	-9.96731
▁projekt	-9.96747
▁bor	-9.968
▁David	-9.96803
▁extra	-9.96823
▁act	-9.96878
▁pro	-9.96927
▁försöka	-9.96952
see	-9.97048
▁favour	-9.97082
▁covered	-9.97124
▁mars	-9.97139
▁insulin	-9.97178
▁criteria	-9.97202
▁gärna	-9.97202
del	-9.97209
▁looks	-9.97211
▁replaced	-9.9724
▁table	-9.9741
▁Mo	-9.9747
▁kvinna	-9.97483
▁ändras	-9.97544
▁weight	-9.97606
▁among	-9.97638
itet	-9.9766
▁towards	-9.97666
tic	-9.97671
▁r	-9.97686
▁medborgare	-9.97703
▁competition	-9.97708
▁Bo	-9.97788
of	-9.97843
30	-9.97849
▁Genom	-9.97884
▁försökte	-9.97933
▁redo	-9.97945
▁pursuan	-9.97962
he	-9.98034
▁share	-9.98106
▁tanke	-9.98213
▁individual	-9.98271
▁evidence	-9.98302
▁tried	-9.98356
▁greater	-9.98383
▁tas	-9.98398
▁känna	-9.98417
▁bror	-9.9843
med	-9.98445
ju	-9.98479
▁protect	-9.98547
▁herrar	-9.98642
▁skydd	-9.98658
▁steg	-9.98759
▁90	-9.98805
vo	-9.98835
▁titta	-9.98845
▁employment	-9.98848
▁trouble	-9.98899
▁Lord	-9.98922
▁Any	-9.98933
▁föreskrivs	-9.99022
▁cell	-9.99089
▁80	-9.99091
vin	-9.99213
▁ihåg	-9.99242
▁idiot	-9.99264
▁dis	-9.99315
▁environment	-9.9932
▁gamla	-9.99328
▁bank	-9.99365
dy	-9.99478
▁effective	-9.99496
▁pass	-9.99512
▁died	-9.99564
▁Paul	-9.99658
▁cost	-9.99664
▁code	-9.99674
▁paid	-9.99684
bb	-9.99725
▁project	-9.99809
▁attention	-9.99854
▁drive	-9.9987
▁Inga	-9.99927
▁con	-9.99946
ni	-9.9997
▁Upp	-9.99982
▁goods	-10.0003
▁klara	-10.0008
▁2010	-10.0013
▁forget	-10.0016
ating	-10.0017
▁approach	-10.0035
▁låt	-10.0037
tin	-10.0044
▁största	-10.0047
▁hate	-10.0048
▁levels	-10.0056
▁stödja	-10.0057
▁region	-10.0071
▁ert	-10.0104
▁seems	-10.0109
▁dotter	-10.011
▁Keep	-10.0115
▁högre	-10.0119
▁resultat	-10.0127
▁förbättra	-10.0135
▁imports	-10.0136
▁1996	-10.0145
▁anymore	-10.0151
▁öka	-10.0163
▁investigation	-10.0168
▁Ra	-10.0169
upp	-10.0169
▁book	-10.0171
▁läkare	-10.0184
less	-10.0192
▁OCH	-10.0203
▁intresse	-10.0208
▁ändring	-10.0215
▁cover	-10.0225
▁genomföra	-10.0226
▁sound	-10.0232
du	-10.0241
▁bed	-10.0243
lin	-10.0256
▁whatever	-10.026
▁främja	-10.0262
▁n	-10.0264
▁ahead	-10.0265
▁France	-10.0274
ES	-10.0275
▁global	-10.0286
by	-10.029
▁offentliga	-10.0294
▁via	-10.0294
▁Sätt	-10.0302
▁ofta	-10.0302
▁0,	-10.0316
20	-10.0318
▁samman	-10.0322
▁Nice	-10.0324
▁potential	-10.0326
▁FÖLJANDE	-10.0327
ho	-10.0332
▁save	-10.0334
▁ring	-10.035
▁applied	-10.0354
▁April	-10.0354
▁president	-10.0366
▁living	-10.038
▁förslaget	-10.0393
rar	-10.0393
▁Frank	-10.0398
▁regards	-10.0403
▁waste	-10.0411
till	-10.0415
▁officiella	-10.042
▁möjlighet	-10.0431
▁6.	-10.0431
▁Fru	-10.0435
▁received	-10.0437
▁bitch	-10.0447
▁Di	-10.0449
▁First	-10.045
(2)	-10.0454
EL	-10.0464
▁lilla	-10.0472
▁1/	-10.0484
▁Bank	-10.0489
ING	-10.0494
else	-10.0496
▁freedom	-10.0499
▁telling	-10.0504
▁finansiella	-10.0504
▁skull	-10.0522
▁El	-10.0525
ite	-10.0526
▁large	-10.0529
pe	-10.054
▁alive	-10.0545
iv	-10.0556
▁Sluta	-10.0579
▁HAR	-10.0579
▁approved	-10.0579
▁address	-10.058
▁opportunity	-10.0599
▁basic	-10.06
▁Eftersom	-10.06
▁32	-10.0606
▁september	-10.0608
▁maximum	-10.0608
▁responsibility	-10.0608
▁ship	-10.061
De	-10.0617
we	-10.0619
och	-10.0622
▁sade	-10.0623
▁according	-10.0624
▁hänt	-10.0627
tra	-10.0637
▁Mamma	-10.0642
▁IV	-10.0647
for	-10.0653
▁fastställa	-10.0661
kan	-10.0663
▁varor	-10.0665
▁året	-10.0678
▁Madam	-10.0679
ir	-10.068
▁September	-10.0682
▁active	-10.069
▁Följ	-10.0695
▁sign	-10.0699
▁Central	-10.0719
▁Two	-10.072
▁Would	-10.0726
▁private	-10.0726
50	-10.0731
▁relation	-10.0736
▁pressure	-10.0738
▁hittar	-10.0739
▁peace	-10.0747
▁gott	-10.0755
▁bevis	-10.0755
▁promise	-10.0758
▁difficult	-10.076
Är	-10.0767
▁especially	-10.0768
form	-10.0769
▁Medlemsstaterna	-10.0776
6,	-10.0781
▁sister	-10.0793
line	-10.0793
▁sådant	-10.0794
▁mm	-10.0795
erar	-10.0803
▁impact	-10.0803
▁cause	-10.0807
▁strong	-10.0807
▁trots	-10.0825
▁vecka	-10.0825
▁Put	-10.0828
kar	-10.0837
▁veckor	-10.0841
▁section	-10.0846
▁använder	-10.0847
▁submitted	-10.0851
mi	-10.0851
▁status	-10.0851
▁tillgång	-10.0855
▁v	-10.0862
▁consider	-10.0866
▁Charlie	-10.0871
▁patient	-10.0873
▁låg	-10.0887
▁TV	-10.0889
▁Am	-10.0895
ver	-10.09
op	-10.0904
▁antar	-10.0906
▁jobbar	-10.0908
▁tydligt	-10.0912
▁ersättas	-10.0919
▁lösning	-10.0921
▁säkerställa	-10.0923
▁lose	-10.0924
▁Z	-10.0929
▁standards	-10.0932
▁Bryssel	-10.0935
▁reda	-10.0936
▁values	-10.094
▁nödvändiga	-10.0947
▁natt	-10.0951
▁Even	-10.096
▁35	-10.0962
▁gift	-10.0962
tan	-10.0963
▁pick	-10.0968
▁tekniska	-10.0969
▁Pappa	-10.097
▁utbildning	-10.0974
▁significant	-10.0978
▁civil	-10.0982
▁situationen	-10.0988
▁decided	-10.0988
▁lag	-10.0988
som	-10.0994
▁Mina	-10.0997
▁genomförande	-10.1002
▁behövs	-10.1012
all	-10.1024
▁1,	-10.1027
▁följd	-10.1034
▁somebody	-10.1041
ard	-10.105
▁capital	-10.1059
▁EUROPEAN	-10.106
▁age	-10.1064
▁Vart	-10.107
▁damer	-10.1076
▁kul	-10.1077
▁polis	-10.1079
▁bryr	-10.1081
▁november	-10.1089
▁fixed	-10.1096
▁Con	-10.1102
▁början	-10.1103
▁thanks	-10.1106
▁benefit	-10.1108
▁regions	-10.1116
▁Brussels	-10.1118
▁running	-10.1123
▁Great	-10.1132
▁central	-10.1137
ats	-10.1137
▁USA	-10.114
▁policies	-10.1147
▁Part	-10.1148
▁lives	-10.1156
▁behöva	-10.1156
▁objectives	-10.1165
▁husband	-10.1166
▁betala	-10.1169
▁hour	-10.1176
▁smart	-10.1177
▁fishing	-10.118
▁others	-10.1181
▁råd	-10.1184
▁rapport	-10.1185
▁investment	-10.1186
▁känns	-10.1186
▁credit	-10.1193
▁började	-10.1195
▁everybody	-10.1195
▁November	-10.1205
▁direktivet	-10.1215
▁(1)	-10.1219
▁Joe	-10.1224
▁kräver	-10.1225
▁People	-10.1226
▁addition	-10.1226
▁medan	-10.1236
ot	-10.1243
▁stycket	-10.1247
▁St	-10.1251
ep	-10.1268
▁200	-10.1273
▁purposes	-10.1274
▁rättsliga	-10.1279
ven	-10.129
que	-10.129
ik	-10.1296
▁van	-10.1299
▁skada	-10.13
▁seem	-10.1305
12	-10.131
▁gemensam	-10.131
▁Mar	-10.1311
▁regulation	-10.1311
▁1995	-10.1317
im	-10.1321
▁lämnade	-10.1327
con	-10.1334
▁essential	-10.1341
▁entry	-10.1345
ous	-10.1356
▁San	-10.1365
▁bilagan	-10.1367
▁leda	-10.1371
▁Michael	-10.1374
▁syn	-10.1376
▁intended	-10.1376
▁pris	-10.139
▁damn	-10.1393
▁(2)	-10.1395
▁Very	-10.1396
▁utvecklingen	-10.1413
▁sånt	-10.1414
▁Her	-10.1421
▁Mitt	-10.1438
▁minns	-10.1438
GENOM	-10.1442
▁Journal	-10.1452
▁närvarande	-10.1455
▁adopt	-10.1458
ber	-10.146
▁ringer	-10.1463
▁framtiden	-10.1464
▁figure	-10.147
▁feeling	-10.1472
▁sitter	-10.1473
▁experience	-10.1477
produkter	-10.1488
▁city	-10.1496
way	-10.1498
fördraget	-10.1498
eller	-10.1499
▁tillämpningen	-10.1501
▁cross	-10.1504
▁kille	-10.1506
▁defined	-10.1512
▁minimum	-10.1513
si	-10.1513
▁term	-10.152
▁systemet	-10.1521
▁THIS	-10.1522
▁vehicle	-10.1531
▁French	-10.1532
▁april	-10.1532
▁low	-10.1537
▁Hallå	-10.154
▁Only	-10.1551
▁AV	-10.1562
▁stå	-10.158
▁dr	-10.1586
▁polisen	-10.1589
▁related	-10.1602
1/	-10.1602
▁HÄRI	-10.1603
▁Ca	-10.1604
▁Förenta	-10.1604
▁Excuse	-10.1605
▁interests	-10.1611
8	-10.1612
):	-10.1614
▁press	-10.1624
▁äta	-10.1627
▁Those	-10.1634
▁mentioned	-10.1639
▁00	-10.1639
▁choice	-10.1642
▁white	-10.1658
ED	-10.1661
▁brott	-10.1662
bar	-10.1662
▁ganska	-10.1675
▁länderna	-10.1679
▁EG	-10.168
▁slå	-10.1684
▁HAS	-10.1686
▁Po	-10.1689
▁reasons	-10.1694
▁FÖRESKRIV	-10.1695
▁married	-10.1695
▁genomförandet	-10.17
▁tillstånd	-10.1701
▁sugar	-10.1706
▁decisions	-10.171
▁naturligtvis	-10.1726
lu	-10.1727
▁negotiations	-10.1729
▁EUROPEISKA	-10.1736
▁month	-10.1753
▁önskar	-10.1754
▁positive	-10.1757
▁objective	-10.1758
▁bi	-10.1765
▁leva	-10.1766
▁black	-10.1767
▁strategy	-10.1767
ran	-10.1768
▁importance	-10.1769
▁gammal	-10.1773
▁limit	-10.1774
▁George	-10.1777
▁finnas	-10.1787
▁hair	-10.1792
▁[1],	-10.1795
▁agreements	-10.1797
▁eget	-10.1799
▁ges	-10.1802
▁slutet	-10.1809
▁hälsa	-10.1814
▁fish	-10.1822
▁myndigheten	-10.1826
▁boys	-10.1827
▁liksom	-10.183
▁Um	-10.1831
ek	-10.1832
▁te	-10.1836
▁sick	-10.1844
▁initiativ	-10.1847
▁stupid	-10.1861
▁context	-10.1861
▁signal	-10.1866
fi	-10.1867
▁often	-10.1869
▁contact	-10.1875
▁y	-10.1878
▁Kingdom	-10.1882
▁exchange	-10.1892
▁equal	-10.1896
▁funny	-10.1903
▁projects	-10.1907
erad	-10.1907
▁changes	-10.1909
▁listed	-10.1911
ans	-10.1911
▁Captain	-10.1913
▁regeringen	-10.1916
▁h	-10.1916
▁disease	-10.1916
▁idé	-10.1919
▁nå	-10.1921
▁various	-10.1924
▁övriga	-10.1925
ny	-10.1929
▁attack	-10.1933
▁explain	-10.1935
Hur	-10.194
▁joint	-10.1942
rna	-10.1946
▁Really	-10.1949
▁högst	-10.1953
▁minska	-10.1957
bi	-10.196
▁several	-10.1965
▁huset	-10.198
▁asking	-10.1992
▁kände	-10.1996
▁studies	-10.1996
▁Which	-10.1997
▁girls	-10.2003
▁top	-10.2004
fall	-10.201
▁buy	-10.2011
▁himself	-10.2019
▁europeisk	-10.2023
▁response	-10.2023
▁groups	-10.2024
▁similar	-10.2029
▁TO	-10.203
▁pain	-10.203
▁fair	-10.203
van	-10.2032
▁arbets	-10.2034
les	-10.2038
our	-10.2038
▁knows	-10.2045
▁ämnen	-10.2046
▁nature	-10.2047
▁Kommer	-10.2047
▁fully	-10.205
▁Mike	-10.2057
▁create	-10.2065
tri	-10.2068
▁ske	-10.2069
▁36	-10.2071
▁equipment	-10.2071
▁Hold	-10.2074
▁gälla	-10.208
ell	-10.208
▁plant	-10.2085
▁goda	-10.2085
gång	-10.2091
▁giving	-10.2092
▁33	-10.2092
▁uppfyller	-10.2092
▁pengarna	-10.21
▁held	-10.2102
▁Hjälp	-10.2107
▁news	-10.2109
out	-10.2115
▁Official	-10.2116
ndet	-10.2126
▁Peter	-10.2135
▁From	-10.214
▁whose	-10.2141
▁begäran	-10.2146
ah	-10.2148
system	-10.2153
▁luck	-10.2164
▁artiklarna	-10.2169
▁society	-10.2178
▁content	-10.218
▁included	-10.218
ful	-10.2185
(1)	-10.2195
▁X	-10.2201
▁annars	-10.2211
▁hämta	-10.2212
▁across	-10.2218
let	-10.222
▁injection	-10.2222
▁Varje	-10.2224
▁Lägg	-10.2229
▁message	-10.2231
▁dessutom	-10.2232
DE	-10.2234
▁fear	-10.2235
▁bodies	-10.2235
▁Convention	-10.2243
▁jobbet	-10.2248
▁certainly	-10.2251
▁red	-10.2255
AT	-10.2257
▁ändra	-10.2257
▁Tre	-10.2259
▁dör	-10.2263
ze	-10.2265
▁godkännande	-10.2265
▁themselves	-10.2275
▁Dessutom	-10.2275
▁pa	-10.2284
▁[1]	-10.229
▁ekonomisk	-10.229
▁Två	-10.2293
▁bäst	-10.2293
▁expect	-10.2294
▁Ar	-10.2295
▁origin	-10.2296
▁crisis	-10.2297
▁Portugal	-10.2299
▁nuvarande	-10.23
▁radio	-10.2302
▁meddelande	-10.2302
mon	-10.2303
▁Government	-10.2308
▁existing	-10.231
▁reach	-10.2314
▁persons	-10.2318
▁loss	-10.2319
▁Ga	-10.2325
▁åtminstone	-10.233
▁räcker	-10.233
9	-10.2332
▁betydelse	-10.2337
▁eye	-10.2339
8/	-10.234
▁kommissionär	-10.234
▁EC	-10.2347
What	-10.2348
▁ringa	-10.2357
▁ground	-10.2363
▁box	-10.2364
▁document	-10.2366
▁population	-10.2369
▁lugnt	-10.2369
▁forskning	-10.2374
▁review	-10.2387
▁förstå	-10.2391
);	-10.2393
▁parents	-10.2402
ors	-10.2403
▁study	-10.2403
mer	-10.2418
▁inklusive	-10.242
▁committee	-10.2423
qui	-10.243
No	-10.2431
lä	-10.2438
▁fungerar	-10.2449
▁leaving	-10.2451
▁fartyg	-10.2453
▁remain	-10.2462
▁företaget	-10.247
gruppen	-10.2477
▁decide	-10.2478
▁IN	-10.248
▁förfarandet	-10.2494
▁rättigheterna	-10.2501
ps	-10.2503
▁higher	-10.2503
▁touch	-10.2505
▁37	-10.2505
ag	-10.2507
▁Lo	-10.2515
▁anses	-10.2521
▁growth	-10.253
rätt	-10.2536
▁contract	-10.2537
▁uppnå	-10.2541
ish	-10.2542
▁producers	-10.2546
▁assistance	-10.2551
term	-10.2556
lor	-10.2562
▁hjälper	-10.257
▁natural	-10.2581
▁art	-10.2581
▁fly	-10.2584
▁upprättandet	-10.2584
▁framsteg	-10.2587
pp	-10.2588
sh	-10.2588
▁approval	-10.2588
▁avser	-10.26
▁capacity	-10.261
▁prevent	-10.2614
▁Economic	-10.2618
▁achieve	-10.262
▁såsom	-10.2624
▁stöder	-10.2625
▁undan	-10.2634
▁bak	-10.2634
▁planet	-10.2635
▁shoot	-10.2637
▁ögon	-10.2639
▁leder	-10.2658
▁föredraganden	-10.2667
▁utom	-10.2668
ey	-10.2669
▁agreed	-10.267
▁Ne	-10.2674
▁kraven	-10.2676
▁practice	-10.2682
▁monitoring	-10.2682
▁administrative	-10.2698
▁tull	-10.2705
▁funds	-10.2708
io	-10.2709
▁70	-10.2714
▁livsmedel	-10.2715
▁ej	-10.2717
▁vägnar	-10.2721
▁killen	-10.2729
▁definition	-10.2731
▁ställa	-10.2731
▁supply	-10.2731
▁nämligen	-10.2731
ap	-10.2743
▁happens	-10.2746
▁tidning	-10.275
14	-10.2752
▁guarantee	-10.2753
▁Got	-10.2756
▁45	-10.2759
▁dörren	-10.2759
▁konkurrens	-10.2761
▁myndigheter	-10.2764
▁stick	-10.2765
od	-10.277
▁möte	-10.277
▁activity	-10.277
▁complete	-10.2783
gg	-10.2788
▁um	-10.2792
▁enkelt	-10.2796
▁300	-10.2802
▁hey	-10.2803
▁measure	-10.2805
ised	-10.2805
▁fara	-10.2805
▁fallet	-10.2809
▁original	-10.2809
▁förut	-10.2816
▁Släpp	-10.2817
▁500	-10.282
▁stan	-10.2822
▁aren	-10.2822
▁rätta	-10.2823
▁ansökan	-10.2823
▁Shit	-10.2824
▁milk	-10.2833
▁lunch	-10.2834
▁carry	-10.2846
▁lämnar	-10.2852
-1	-10.2866
▁substances	-10.2867
▁Other	-10.287
mar	-10.2872
mma	-10.2873
▁calling	-10.2877
▁belopp	-10.2879
▁contribution	-10.288
▁oil	-10.2886
▁39	-10.2887
▁building	-10.289
▁agent	-10.289
▁entire	-10.2897
5,	-10.2901
▁Something	-10.2903
▁follows	-10.2905
▁holding	-10.291
▁class	-10.2922
▁garantera	-10.2926
▁kept	-10.2926
▁Mer	-10.293
▁Paris	-10.2932
▁finally	-10.2934
▁sanningen	-10.2936
sp	-10.2938
▁specified	-10.2953
▁anyway	-10.2955
jag	-10.296
▁board	-10.2961
▁arbetar	-10.2966
EUT	-10.2966
▁vidta	-10.2968
kin	-10.2969
▁kon	-10.2972
gi	-10.2978
▁added	-10.298
nar	-10.2981
cause	-10.2986
▁takes	-10.2987
▁Fa	-10.2994
▁direct	-10.3001
▁rule	-10.3002
▁träder	-10.3008
▁Wow	-10.302
off	-10.3025
▁syster	-10.3026
▁lady	-10.3028
▁2012	-10.3028
slag	-10.3029
▁Hans	-10.3034
▁påverkar	-10.3036
▁happening	-10.3038
ac	-10.3041
▁lösa	-10.3042
▁Internet	-10.3042
▁gets	-10.3043
▁unless	-10.3045
▁education	-10.3046
▁ursäkt	-10.3053
▁Frankrike	-10.3056
19	-10.3058
▁ADOPTED	-10.3078
▁lära	-10.3082
▁debatt	-10.3083
ence	-10.3084
▁crime	-10.3093
7/	-10.3097
▁lämpligt	-10.3105
▁synnerhet	-10.3114
▁band	-10.3117
▁honey	-10.3118
nummer	-10.3129
▁skriva	-10.3135
å	-10.3147
▁fattar	-10.3148
▁lär	-10.3148
▁dangerous	-10.3149
▁reports	-10.3151
▁secret	-10.3165
15	-10.3169
▁galen	-10.3169
Z	-10.3179
90	-10.3181
▁matters	-10.3185
▁Help	-10.3189
▁draft	-10.3196
▁Everything	-10.3198
▁misstag	-10.3199
▁actions	-10.3206
▁super	-10.3209
▁clean	-10.3209
▁draw	-10.3212
net	-10.3214
▁aware	-10.3215
▁fundamental	-10.3216
▁Berätta	-10.3219
▁containing	-10.322
▁undvika	-10.322
▁hel	-10.3223
▁communication	-10.3228
7,	-10.3232
▁worked	-10.3238
▁vin	-10.3242
▁hospital	-10.3244
▁anta	-10.3249
▁below	-10.3251
▁åren	-10.3254
ker	-10.3255
▁murder	-10.3263
▁early	-10.327
▁concern	-10.3275
▁Er	-10.3275
▁fiske	-10.3277
▁Say	-10.3282
▁completely	-10.3286
▁mannen	-10.3288
▁rad	-10.3293
▁binding	-10.3307
▁ca	-10.3309
sten	-10.3315
▁Since	-10.3317
gar	-10.3318
▁EES	-10.332
▁behandlingen	-10.3323
▁win	-10.3324
▁arm	-10.3326
▁territory	-10.3328
▁flyg	-10.3331
3,	-10.3335
▁sån	-10.3343
▁Lyssna	-10.3344
!"	-10.3346
red	-10.3349
Var	-10.3356
▁official	-10.3356
▁skolan	-10.3359
▁sysselsättning	-10.3362
▁dags	-10.3364
▁VI	-10.3368
▁changed	-10.337
▁Kolla	-10.3377
▁EEA	-10.3378
▁prepared	-10.3384
▁lie	-10.3394
▁förklara	-10.3398
▁former	-10.3406
▁documents	-10.3412
▁Kina	-10.3412
▁Germany	-10.3418
len	-10.3419
▁ringde	-10.3435
▁fin	-10.3441
▁subparagraph	-10.345
▁Mary	-10.3451
▁nummer	-10.3452
ron	-10.3452
▁arbeta	-10.3453
pen	-10.3455
pro	-10.3456
▁annual	-10.3462
▁viss	-10.3464
▁års	-10.3467
so	-10.347
▁anybody	-10.3475
▁slag	-10.3476
▁inre	-10.3476
▁Ju	-10.3477
▁fortsätter	-10.3478
01	-10.3481
▁Presidency	-10.3487
▁economy	-10.3487
▁regarding	-10.349
▁institution	-10.3499
▁workers	-10.3502
▁space	-10.351
▁fastställas	-10.3511
▁köpa	-10.3512
san	-10.3518
▁provision	-10.352
▁avgörande	-10.3521
▁moving	-10.3524
▁kontakt	-10.3532
▁indeed	-10.3538
tion	-10.3539
▁currently	-10.3544
▁history	-10.3549
▁Tyskland	-10.355
▁shut	-10.3551
▁match	-10.3553
▁bomb	-10.3554
▁flesta	-10.356
.1	-10.3567
▁försäljning	-10.3567
▁payment	-10.3568
▁playing	-10.357
▁visat	-10.3582
▁Stanna	-10.3584
▁älskling	-10.3585
▁kontrollera	-10.3602
▁problemet	-10.3602
40	-10.3603
▁stoppa	-10.3606
▁letter	-10.3607
tid	-10.3608
▁voice	-10.361
▁learn	-10.361
▁principles	-10.3613
▁Ho	-10.3618
▁produkt	-10.3624
isation	-10.3627
▁improve	-10.3629
▁meat	-10.363
▁köra	-10.3631
▁dinner	-10.3632
ub	-10.3632
▁Affairs	-10.3635
▁bindande	-10.3635
▁lägger	-10.3635
▁customs	-10.3636
▁concerns	-10.364
▁interested	-10.3642
▁substance	-10.3649
▁ANTA	-10.366
▁Mark	-10.3669
▁Ko	-10.3669
▁catch	-10.3672
väl	-10.3674
▁markets	-10.3679
▁allowed	-10.3687
dra	-10.3687
▁bio	-10.3689
▁gr	-10.3701
▁provides	-10.3707
▁intervention	-10.3708
▁februari	-10.371
▁UN	-10.371
▁håll	-10.371
▁reduction	-10.3713
mor	-10.3716
▁ibland	-10.372
▁relationship	-10.3723
▁staterna	-10.3723
(3)	-10.3725
▁court	-10.3729
ise	-10.3729
▁föräldrar	-10.3731
▁respekt	-10.3734
▁balance	-10.3743
▁amendment	-10.3752
1,	-10.3755
▁Members	-10.3759
▁visade	-10.376
▁ledamöter	-10.3772
▁mission	-10.3772
▁piece	-10.3773
▁uppgift	-10.3777
▁Stay	-10.3778
▁liknande	-10.3783
▁fordon	-10.3785
▁February	-10.3785
▁skin	-10.3787
▁Ray	-10.3788
▁programmet	-10.3791
▁nationell	-10.3792
▁London	-10.3798
GIT	-10.3799
▁Minister	-10.3804
▁worth	-10.3804
▁perfect	-10.3806
▁integration	-10.3807
▁operations	-10.3813
▁member	-10.3814
▁scheme	-10.3816
▁omkring	-10.3816
2/	-10.3829
▁tillämplig	-10.383
iskt	-10.383
▁expenditure	-10.3836
▁comply	-10.3838
ku	-10.3841
▁except	-10.3841
▁överenskommelse	-10.3844
▁Max	-10.3844
▁reported	-10.3848
▁utveckla	-10.3851
▁el	-10.3855
▁ECB	-10.3858
▁Un	-10.3862
▁förra	-10.3873
▁poor	-10.3876
▁range	-10.3885
▁Car	-10.3896
▁oberoende	-10.39
▁beslutet	-10.39
▁Therefore	-10.39
▁finansiering	-10.3901
if	-10.3902
▁wine	-10.3908
▁COMMISSION	-10.3912
3/	-10.3913
▁America	-10.3918
▁inform	-10.3924
▁parter	-10.3927
▁anledning	-10.393
▁dödar	-10.3932
▁doubt	-10.3932
att	-10.3936
▁Dan	-10.3938
▁säkra	-10.3939
fin	-10.394
ud	-10.3941
▁Israel	-10.3943
▁drar	-10.3943
▁Bill	-10.3944
▁straight	-10.3951
▁sea	-10.3951
▁hittat	-10.3953
▁instruments	-10.3956
▁dear	-10.3957
▁recent	-10.396
▁omfattar	-10.3961
▁simply	-10.3964
▁ljus	-10.3968
▁Christ	-10.397
▁2,	-10.3972
▁kallar	-10.3977
▁Från	-10.3981
▁skatte	-10.3981
▁count	-10.3984
▁överens	-10.3989
▁kolla	-10.3991
▁Alex	-10.3994
▁sitting	-10.3999
▁parts	-10.4
▁ren	-10.4014
▁sju	-10.4016
▁handel	-10.4021
▁Precis	-10.4021
▁James	-10.4031
▁Skulle	-10.4033
ach	-10.4037
än	-10.4037
▁kärlek	-10.4038
▁kallade	-10.4043
▁dokument	-10.4046
▁Done	-10.4048
▁Could	-10.4053
▁worse	-10.4054
▁uppfylla	-10.4055
▁innovation	-10.4057
▁Sp	-10.4066
▁lokala	-10.4073
▁75	-10.4074
▁spel	-10.4078
▁Far	-10.4086
▁iväg	-10.4092
▁beroende	-10.4093
▁detailed	-10.4098
▁välja	-10.4101
9/	-10.4112
▁Was	-10.4114
▁Harry	-10.4115
▁majority	-10.4121
▁lack	-10.4123
Hej	-10.413
",	-10.413
▁floor	-10.4132
you	-10.4133
▁bär	-10.4135
▁event	-10.4135
▁kolleger	-10.414
▁Nick	-10.4159
▁organisations	-10.4162
bil	-10.4162
▁ball	-10.4163
par	-10.4164
▁Utan	-10.4165
▁närmare	-10.4166
▁laying	-10.4169
▁staff	-10.4172
13	-10.4174
ator	-10.4178
▁shown	-10.4186
▁package	-10.4187
▁enbart	-10.4192
time	-10.4194
▁reading	-10.4194
▁34	-10.4201
▁Allah	-10.4206
▁initiative	-10.4209
▁Ring	-10.4209
▁notice	-10.4212
▁bidra	-10.4219
▁American	-10.4223
ph	-10.4227
25	-10.4228
▁behövde	-10.4238
▁visit	-10.424
▁cold	-10.4246
▁stämmer	-10.4251
▁Agency	-10.4251
je	-10.4253
▁sometimes	-10.4259
▁size	-10.426
▁perhaps	-10.4264
▁Vår	-10.4267
▁efforts	-10.4268
mat	-10.4271
▁treated	-10.4271
▁styr	-10.4277
▁produkten	-10.4286
▁issued	-10.4291
▁closed	-10.4308
▁charge	-10.4308
▁ram	-10.4312
▁instead	-10.4317
▁Bye	-10.4326
▁promote	-10.4327
▁ingår	-10.4333
ris	-10.4337
▁förfarande	-10.4359
▁paper	-10.436
ET	-10.4368
ordförandeskapet	-10.4372
▁egentligen	-10.4373
▁driver	-10.4374
▁högsta	-10.4378
ki	-10.4382
▁network	-10.4387
▁dream	-10.4389
▁scared	-10.4393
Har	-10.4394
▁kommittén	-10.4394
▁setting	-10.4396
▁vikt	-10.4396
▁connection	-10.4398
▁analysis	-10.4399
▁nor	-10.4412
▁immediately	-10.4413
▁ställe	-10.4418
▁tjänst	-10.4423
▁hända	-10.4425
▁video	-10.4428
▁implementing	-10.4429
kon	-10.4441
akt	-10.4442
▁felt	-10.4446
▁Shut	-10.4448
▁lower	-10.445
▁heading	-10.445
▁saken	-10.4455
und	-10.4455
▁record	-10.4458
ok	-10.4466
▁Pro	-10.447
▁statement	-10.4472
▁circumstances	-10.4473
avtalet	-10.4474
ow	-10.4476
▁amending	-10.4499
▁debatten	-10.45
▁stage	-10.4502
▁ståndpunkt	-10.4505
▁self	-10.4506
▁viktigaste	-10.4507
▁uppdrag	-10.4508
▁difference	-10.451
▁achieved	-10.4512
▁transfer	-10.4517
▁round	-10.4518
▁lämpliga	-10.4524
▁prov	-10.4528
▁Jim	-10.4531
▁antalet	-10.4531
▁mass	-10.4531
▁method	-10.4538
▁fl	-10.454
▁drift	-10.455
vid	-10.4552
▁lovar	-10.4553
bra	-10.4554
▁sweet	-10.4559
▁(3)	-10.4559
▁foreign	-10.4564
▁train	-10.4572
Varför	-10.4573
▁Make	-10.4581
ities	-10.4584
▁betydande	-10.4588
▁månad	-10.4591
met	-10.4591
▁ANNEX	-10.4592
▁förhållande	-10.4597
▁stannar	-10.4597
▁kapital	-10.4599
▁kommission	-10.46
ped	-10.4602
▁tillgängliga	-10.4614
gel	-10.4617
▁Nästa	-10.4617
▁Pi	-10.4628
▁pen	-10.4629
▁duties	-10.4629
▁reduce	-10.4636
▁grad	-10.4638
äng	-10.4639
▁bakgrund	-10.464
▁failure	-10.4642
▁developing	-10.4643
▁fullt	-10.465
▁villkoren	-10.4653
▁receive	-10.4653
▁voted	-10.4654
▁Agent	-10.4656
vä	-10.466
▁German	-10.4665
▁Fund	-10.4666
▁publication	-10.4667
▁motor	-10.4671
▁hantera	-10.4676
▁stödet	-10.4676
▁le	-10.468
▁sjuk	-10.4683
▁läsa	-10.4683
nd	-10.4683
▁fat	-10.4685
ock	-10.4687
▁Vilket	-10.4688
▁picture	-10.4692
▁Henry	-10.4698
▁Finally	-10.4698
år	-10.4698
▁Never	-10.4699
▁förfaranden	-10.4699
▁International	-10.4702
▁Social	-10.4702
▁Damn	-10.4707
▁tjej	-10.4708
ski	-10.471
▁aim	-10.4712
plan	-10.4716
▁berättade	-10.4717
▁letar	-10.4724
▁strategi	-10.4725
▁Common	-10.4726
Cause	-10.4734
▁limited	-10.4738
nen	-10.4739
▁drop	-10.4742
▁Green	-10.4745
▁arg	-10.4745
ru	-10.4745
▁försök	-10.4746
▁mening	-10.4747
▁Articles	-10.4754
▁express	-10.4755
▁Mor	-10.4756
▁2013	-10.477
▁1994	-10.4773
ella	-10.478
▁snälla	-10.479
fo	-10.4792
▁Tony	-10.4799
▁acid	-10.481
▁fastställande	-10.481
fe	-10.4815
▁ändringar	-10.4816
▁simple	-10.4823
▁respektive	-10.4823
▁satt	-10.4835
▁democratic	-10.484
▁US	-10.4844
tes	-10.4851
06	-10.4852
▁boss	-10.4853
▁associated	-10.4854
▁regering	-10.4855
▁åtgärd	-10.4856
rin	-10.4856
▁establish	-10.4857
▁previous	-10.486
▁Cor	-10.4863
▁Every	-10.487
oc	-10.4872
▁inter	-10.4874
▁sker	-10.4875
▁FBI	-10.4879
▁BILAGA	-10.4884
▁vehicles	-10.4884
▁samtliga	-10.4884
▁avoid	-10.489
▁Pe	-10.4893
▁Italien	-10.4893
▁vare	-10.4897
▁natten	-10.4897
▁totala	-10.4897
▁writing	-10.4899
▁join	-10.4902
▁oral	-10.4907
▁condition	-10.4908
▁develop	-10.491
96	-10.4911
lic	-10.4913
▁regulations	-10.4918
▁plans	-10.492
▁hårt	-10.4921
▁Ireland	-10.4922
▁species	-10.4924
▁published	-10.4925
▁target	-10.4927
▁FN	-10.493
▁require	-10.4931
ious	-10.4934
▁värde	-10.4935
▁although	-10.4936
pan	-10.4937
▁distribution	-10.4942
ställ	-10.4942
nt	-10.4943
▁halv	-10.4951
▁Nobody	-10.4952
▁effektivt	-10.4958
▁regionala	-10.496
▁station	-10.4964
▁handle	-10.4966
▁någonting	-10.4972
(4)	-10.4974
king	-10.4974
▁hjärta	-10.4976
▁store	-10.4977
▁Ok	-10.4979
▁Mycket	-10.4997
▁mention	-10.5
▁historia	-10.5
▁[2]	-10.5001
her	-10.5015
RE	-10.5017
po	-10.5018
▁fault	-10.5021
▁språk	-10.5022
▁flicka	-10.5025
▁handels	-10.5028
▁möjligheter	-10.503
▁ikväll	-10.5032
▁success	-10.5033
▁parlamentets	-10.5035
▁antingen	-10.5035
▁knowledge	-10.5037
▁military	-10.5038
sam	-10.5039
▁delegation	-10.5041
▁beginning	-10.5052
▁uppe	-10.5053
▁looked	-10.5056
äck	-10.5056
▁external	-10.5057
▁veckan	-10.5059
▁tecken	-10.5064
▁lät	-10.5065
▁lyssna	-10.5066
systemet	-10.5069
▁Ba	-10.5071
▁feed	-10.5073
▁krig	-10.5078
▁Robert	-10.5079
▁Fine	-10.5081
▁någonsin	-10.5081
▁West	-10.5087
▁ass	-10.5088
▁parlament	-10.5093
▁tillhör	-10.5094
▁kapitel	-10.5096
▁write	-10.5104
▁stress	-10.5105
▁produced	-10.5106
sel	-10.5107
▁yesterday	-10.5107
▁förhindra	-10.5107
▁lägre	-10.5108
▁Section	-10.5109
▁relations	-10.5111
▁tänkt	-10.5114
En	-10.5117
nad	-10.5118
▁Should	-10.5122
▁faktum	-10.5122
▁determined	-10.5122
▁kostnader	-10.5123
▁mouth	-10.5124
▁overall	-10.5142
▁slog	-10.5143
▁Euro	-10.5145
▁speed	-10.5146
▁weird	-10.5151
rad	-10.5157
▁Development	-10.5165
▁billion	-10.5166
▁meaning	-10.517
▁base	-10.5179
▁average	-10.518
▁Sarah	-10.5181
lag	-10.5182
▁bekämpa	-10.5184
▁saknar	-10.5184
▁tillämpa	-10.5186
▁effekt	-10.5186
▁seven	-10.5186
▁presented	-10.5191
▁turned	-10.5192
▁relevanta	-10.5202
▁sales	-10.5208
▁Chapter	-10.5211
▁enskilda	-10.5215
▁Över	-10.5216
▁illegal	-10.5218
▁lagt	-10.5229
▁bild	-10.5236
▁kött	-10.5243
▁pull	-10.5248
▁Call	-10.5252
▁rent	-10.5253
▁scope	-10.5262
▁calls	-10.5263
öd	-10.5263
▁shouldn	-10.5266
▁ourselves	-10.5267
▁nobody	-10.5269
▁medical	-10.528
▁democracy	-10.5282
pel	-10.5282
▁works	-10.5285
▁bear	-10.529
▁massa	-10.5296
▁kidding	-10.5296
▁starting	-10.5298
▁extremely	-10.5298
▁’	-10.5312
▁reduced	-10.5315
▁consumer	-10.5317
▁missing	-10.5326
▁röst	-10.533
▁bok	-10.5332
Och	-10.5333
▁mord	-10.5334
wa	-10.5336
▁designed	-10.5338
▁Ryssland	-10.5341
▁marketing	-10.5343
▁version	-10.5347
▁våld	-10.5347
▁More	-10.5349
▁Red	-10.5352
▁Pa	-10.5354
▁intressen	-10.5356
4/	-10.5361
▁stund	-10.5367
▁Bob	-10.5369
▁42	-10.537
politiken	-10.5371
▁direction	-10.5375
▁East	-10.5376
▁gett	-10.5377
▁Först	-10.5386
▁adoption	-10.5387
▁WTO	-10.539
▁makt	-10.5392
▁careful	-10.5396
▁Någon	-10.5399
▁Dom	-10.5408
2000	-10.5416
ina	-10.5418
port	-10.5422
▁bedömning	-10.5429
▁college	-10.5429
▁huvudet	-10.5433
▁48	-10.544
▁ersättning	-10.5441
▁arrangements	-10.5441
▁model	-10.5443
▁annorlunda	-10.5444
▁priority	-10.5445
▁al	-10.5446
X	-10.5454
▁volume	-10.5459
▁bag	-10.546
▁somewhere	-10.546
ize	-10.5467
▁tri	-10.5467
▁socker	-10.5468
▁card	-10.5468
side	-10.5471
▁prior	-10.5471
▁Nån	-10.5472
▁Förenade	-10.5474
▁Special	-10.5477
▁jobs	-10.5477
▁commercial	-10.5478
▁perioden	-10.5489
far	-10.549
▁Jimmy	-10.5492
AN	-10.5492
▁Folk	-10.5493
▁ändrad	-10.5496
▁hatar	-10.5498
▁FOR	-10.5499
▁expressed	-10.5499
▁jobba	-10.55
samma	-10.5501
▁skjuta	-10.5507
▁Vilka	-10.5512
sch	-10.5515
▁tyst	-10.5516
erat	-10.5518
▁movement	-10.5518
▁beat	-10.5518
▁delen	-10.5524
lt	-10.5527
▁tillhandahålla	-10.5528
bu	-10.5528
▁Å	-10.5531
▁meant	-10.5539
▁Andra	-10.554
▁Dra	-10.5543
▁accident	-10.5545
05	-10.5547
▁Ke	-10.5547
▁Protocol	-10.5549
aste	-10.5553
▁pratade	-10.5553
▁fix	-10.5554
▁Hu	-10.5554
▁states	-10.5557
▁kalla	-10.556
dan	-10.5564
▁Martin	-10.5564
▁plasma	-10.5564
▁Mm	-10.5565
▁Richard	-10.5567
4,	-10.5569
▁vessels	-10.5572
▁förbi	-10.5572
▁Over	-10.5574
▁smell	-10.558
▁fruit	-10.5584
▁rock	-10.5585
▁wonder	-10.5587
▁Gra	-10.559
▁nere	-10.5591
▁reached	-10.5593
▁North	-10.5596
nor	-10.56
▁finish	-10.5601
▁note	-10.5604
za	-10.5615
▁jorden	-10.5621
▁beyond	-10.5625
▁medelstora	-10.5625
tur	-10.563
▁fresh	-10.563
▁sell	-10.5638
▁behandlas	-10.5638
skap	-10.5639
▁svara	-10.564
▁fria	-10.5642
▁Li	-10.5647
▁item	-10.5647
▁China	-10.5648
▁evening	-10.565
▁yttrande	-10.5653
▁expected	-10.5653
▁kompis	-10.5655
▁Republiken	-10.5655
▁nuclear	-10.5655
▁unit	-10.5656
▁Van	-10.5658
▁site	-10.5661
por	-10.5664
han	-10.5666
▁lock	-10.5667
▁King	-10.5674
▁framtid	-10.5674
▁nyligen	-10.5687
hi	-10.5687
▁spår	-10.569
don	-10.5692
▁arbetet	-10.5698
▁dialogue	-10.5701
▁Open	-10.5704
ius	-10.5706
▁studier	-10.5708
▁seat	-10.5709
▁ride	-10.5711
bara	-10.5713
▁drog	-10.5715
▁Mot	-10.5716
▁Fe	-10.5716
ee	-10.5718
▁thus	-10.5719
dd	-10.5726
▁mjölk	-10.5727
▁events	-10.5732
▁absolut	-10.5735
▁bygga	-10.5736
▁White	-10.5737
II	-10.5739
▁port	-10.5741
▁add	-10.5741
▁funding	-10.5742
-2	-10.5744
He	-10.5744
▁samtal	-10.5751
ssystem	-10.5751
▁aktuella	-10.5752
▁feet	-10.5754
▁fred	-10.5756
▁särskild	-10.5758
▁handling	-10.576
gas	-10.5767
stra	-10.5768
▁file	-10.5774
▁sägs	-10.5778
▁Finland	-10.5778
▁Daniel	-10.5779
▁målet	-10.5781
▁clinical	-10.5783
▁seeing	-10.5785
2,	-10.5785
▁drug	-10.5787
ld	-10.5787
▁hang	-10.5797
▁38	-10.5797
skydd	-10.5797
▁antas	-10.5797
▁Joint	-10.5803
▁utarbeta	-10.5805
nivå	-10.5806
▁REGULATION	-10.5809
▁Italy	-10.581
▁flytta	-10.5812
▁resurser	-10.5817
sin	-10.5817
▁snäll	-10.5821
▁Russia	-10.5821
▁spirit	-10.5821
åt	-10.5822
▁Ex	-10.5824
▁conclusion	-10.5825
▁Big	-10.5827
▁gällande	-10.5827
▁enjoy	-10.583
▁authorised	-10.5834
02	-10.5834
▁slår	-10.5844
väg	-10.5847
▁institutioner	-10.5848
▁City	-10.5849
▁därmed	-10.5853
au	-10.5854
▁computer	-10.5855
eu	-10.5856
▁44	-10.586
▁Q	-10.5868
▁ban	-10.5869
▁terrorism	-10.5873
▁created	-10.588
▁roligt	-10.5881
▁skyldig	-10.5886
▁coffee	-10.5887
ical	-10.5887
tag	-10.589
▁contains	-10.589
▁Gi	-10.5896
▁klockan	-10.5905
▁medlemsstaten	-10.5906
▁kultur	-10.5908
▁Pre	-10.5908
▁compliance	-10.5914
▁fängelse	-10.5917
▁Security	-10.5918
▁totally	-10.5918
▁Lu	-10.5919
▁media	-10.5921
missionsledamot	-10.5921
▁handlingar	-10.5925
nas	-10.5931
16	-10.5932
▁extent	-10.5933
▁bus	-10.5935
▁tittar	-10.5939
▁Information	-10.5942
▁85	-10.5942
IN	-10.5944
▁göras	-10.595
▁establishment	-10.5953
▁rösta	-10.5953
▁cancer	-10.5954
▁Clark	-10.596
▁trött	-10.5962
▁kvalitet	-10.5963
▁vacker	-10.5973
▁Få	-10.5975
▁indicated	-10.5976
▁obligations	-10.5977
▁införa	-10.5977
▁caused	-10.5978
▁submit	-10.598
▁Authority	-10.5981
▁throw	-10.5983
▁therapy	-10.5984
▁boat	-10.5989
▁methods	-10.599
▁blind	-10.5992
ally	-10.5995
▁övervakning	-10.5995
▁South	-10.5998
▁informera	-10.5998
▁loved	-10.5999
▁kiss	-10.6003
▁argument	-10.6003
▁chef	-10.601
▁allvarliga	-10.6015
▁consumers	-10.6022
▁fungera	-10.6022
▁accession	-10.6024
▁allvar	-10.6025
▁tillfälle	-10.6029
▁främst	-10.6037
▁eight	-10.6043
▁syftar	-10.6045
▁undertaking	-10.605
ned	-10.6054
▁ran	-10.6054
▁vanliga	-10.6056
▁exakt	-10.6058
▁damage	-10.6059
berg	-10.6059
▁Kosovo	-10.606
▁föreslår	-10.6065
▁demand	-10.6073
03	-10.6076
▁authorisation	-10.6081
▁Table	-10.6085
▁omedelbart	-10.6089
▁deep	-10.6097
▁igår	-10.6099
▁franska	-10.6101
▁Tri	-10.6101
▁01	-10.6103
▁insurance	-10.6107
▁Sch	-10.611
▁timme	-10.6111
▁gräns	-10.6116
ov	-10.6122
Hon	-10.6123
▁förvaltning	-10.6123
▁Justice	-10.6126
▁omständigheter	-10.6129
▁professional	-10.613
dig	-10.6138
▁beträffande	-10.6139
området	-10.6141
▁värre	-10.6142
18	-10.6142
▁dialog	-10.6148
▁function	-10.6152
▁music	-10.6152
▁Time	-10.6152
my	-10.6155
ett	-10.6159
act	-10.6161
▁avsedda	-10.6164
▁near	-10.6172
▁medicinal	-10.6173
▁prove	-10.6183
▁likely	-10.6186
▁daily	-10.6187
▁mistake	-10.6197
▁uniform	-10.6203
▁trip	-10.6204
▁tal	-10.6204
▁43	-10.6205
▁recommended	-10.6207
▁delta	-10.6209
▁sköt	-10.6215
▁gemensamt	-10.6223
▁blow	-10.6223
▁jordbruk	-10.6225
ass	-10.6229
▁65	-10.6229
▁initial	-10.623
▁Te	-10.6236
▁kungariket	-10.6238
rum	-10.6239
För	-10.624
medel	-10.6242
▁Party	-10.6246
▁organisationer	-10.6249
FR	-10.6251
▁enlargement	-10.6252
▁ya	-10.6256
ec	-10.6257
▁debt	-10.6258
▁language	-10.6261
▁Act	-10.6261
▁begin	-10.6261
▁representative	-10.6263
▁stock	-10.6264
AR	-10.6265
▁kunnat	-10.6268
▁guidelines	-10.6268
▁throughout	-10.6271
ure	-10.6271
▁implement	-10.6274
▁killar	-10.6275
wi	-10.6284
▁Turkiet	-10.6284
▁focus	-10.6288
▁produktion	-10.6288
ighet	-10.6294
▁dvs	-10.6301
▁suit	-10.6302
▁synd	-10.6304
▁fi	-10.6305
▁processing	-10.6311
▁consumption	-10.6317
▁followed	-10.6319
fer	-10.632
▁referens	-10.6329
▁förrän	-10.6334
▁Report	-10.6334
cy	-10.6335
ice	-10.634
▁politisk	-10.6345
▁Yo	-10.6348
▁Val	-10.6349
▁analys	-10.6352
▁undrar	-10.6353
▁weren	-10.6358
▁command	-10.636
ernas	-10.6363
▁Turkey	-10.6366
▁spent	-10.6366
industrin	-10.6369
use	-10.6369
▁talked	-10.637
▁människa	-10.6372
▁ok	-10.6374
▁Kör	-10.6387
▁Rådets	-10.6389
▁framtida	-10.6391
▁spend	-10.6392
▁task	-10.6392
▁medium	-10.6393
▁skicka	-10.6394
sättning	-10.6397
▁luft	-10.6398
▁addressed	-10.6399
▁lita	-10.6411
▁alfa	-10.6415
ship	-10.6418
▁Gar	-10.6418
▁bas	-10.6419
▁contain	-10.6429
▁FÖRORDNING	-10.6431
▁Father	-10.6432
▁agenda	-10.6432
ping	-10.6433
▁na	-10.6435
▁beror	-10.6435
year	-10.6438
▁ställning	-10.6439
▁expert	-10.6443
▁trick	-10.6445
▁tillväxt	-10.6446
gan	-10.6447
▁äldre	-10.6448
▁prison	-10.6448
▁entirety	-10.6449
▁accepted	-10.645
IT	-10.6451
▁Whatever	-10.6454
▁YOU	-10.6456
▁commitment	-10.6461
▁legislative	-10.6464
▁behovet	-10.6465
▁deltagande	-10.6466
▁salt	-10.6468
▁technology	-10.6469
så	-10.647
▁allmänheten	-10.6472
▁motsvarande	-10.6481
▁sättet	-10.6489
▁arrest	-10.649
▁omfatta	-10.6491
▁actual	-10.6492
hand	-10.6492
▁höll	-10.6493
▁Jake	-10.6495
▁kr	-10.6496
▁labour	-10.6497
cal	-10.6502
▁materials	-10.6507
▁foot	-10.6511
▁August	-10.6514
▁proper	-10.6514
▁slags	-10.6517
▁remind	-10.6521
▁amounts	-10.6523
cker	-10.6523
▁biverkningar	-10.6524
▁design	-10.6525
▁laws	-10.6525
▁track	-10.6528
ay	-10.6533
ab	-10.6533
▁enable	-10.6541
▁sufficient	-10.6545
håll	-10.6545
▁kallas	-10.6547
▁ordning	-10.6548
▁stark	-10.6554
▁Tja	-10.6559
▁telefon	-10.656
▁brand	-10.656
over	-10.6565
old	-10.6567
▁powers	-10.6569
▁åtgärderna	-10.6571
▁ko	-10.6574
▁tests	-10.6575
▁värld	-10.6578
▁risker	-10.6585
▁Ab	-10.6588
▁betalar	-10.6593
rid	-10.6596
▁quantities	-10.6597
▁travel	-10.6598
▁register	-10.6603
▁Ka	-10.6625
We	-10.6625
▁kontor	-10.6643
▁Tro	-10.6647
▁stärka	-10.6647
▁Danny	-10.6648
▁högt	-10.6649
▁miljarder	-10.6661
▁Three	-10.6664
isering	-10.6664
ez	-10.6665
▁uppmärksamhet	-10.6666
▁alltför	-10.6667
▁sova	-10.6671
▁concluded	-10.6673
▁sektorn	-10.6674
▁aspects	-10.6679
▁born	-10.6679
▁Perhaps	-10.6681
▁possibility	-10.6681
▁World	-10.6684
▁window	-10.6685
▁Bar	-10.6688
▁Visa	-10.6697
▁appreciate	-10.6698
▁Christmas	-10.6698
▁underrätta	-10.67
▁sun	-10.6701
▁fit	-10.6707
▁dåligt	-10.6707
kta	-10.6709
▁plane	-10.6711
▁excellent	-10.6715
▁caught	-10.6715
▁Su	-10.6724
▁parterna	-10.6725
rat	-10.6725
▁source	-10.6728
▁double	-10.6732
▁Daddy	-10.6733
▁mad	-10.6733
▁Spain	-10.6733
▁beklagar	-10.6734
▁undersökning	-10.6735
▁äter	-10.6738
▁release	-10.6739
▁Hoppa	-10.6741
▁glas	-10.6747
▁pack	-10.675
▁watching	-10.675
▁absolutely	-10.6751
▁Move	-10.6752
▁officer	-10.6754
▁performance	-10.6766
▁Before	-10.6766
▁sälja	-10.6767
▁street	-10.6768
▁levande	-10.6769
▁represent	-10.6773
▁whom	-10.6776
hu	-10.6777
▁jätte	-10.6781
▁truck	-10.6784
▁obtained	-10.6788
▁dark	-10.6792
92	-10.6793
ssa	-10.6793
▁standing	-10.6793
▁Fortsätt	-10.6793
▁combination	-10.68
▁Afghanistan	-10.6802
▁åtta	-10.6805
▁150	-10.6806
▁financing	-10.6812
▁killing	-10.6817
▁Spanien	-10.6817
▁Watch	-10.6817
lit	-10.6817
▁hund	-10.6817
▁tyckte	-10.6818
IC	-10.6819
▁7.	-10.6822
▁utrustning	-10.6826
▁destination	-10.6834
▁fisheries	-10.6834
ang	-10.6836
▁(4)	-10.6838
nu	-10.6839
▁dance	-10.6843
▁payments	-10.6852
▁raise	-10.6852
▁Tommy	-10.6852
▁otherwise	-10.6853
▁lying	-10.6854
gu	-10.6854
▁quickly	-10.6856
▁star	-10.6861
ou	-10.6862
▁Jane	-10.6863
ef	-10.6869
▁providing	-10.6869
row	-10.6869
ward	-10.687
▁cash	-10.6872
hal	-10.6874
▁net	-10.6876
ung	-10.688
▁community	-10.6886
▁gifta	-10.6886
nes	-10.6886
▁stod	-10.6889
▁Human	-10.6889
▁Fördraget	-10.6904
▁Someone	-10.6904
▁barnen	-10.6906
.”	-10.6906
▁described	-10.6911
▁gud	-10.6911
23	-10.6914
▁fest	-10.6917
▁DENNA	-10.692
ino	-10.6926
▁reglerna	-10.6927
lighet	-10.6935
▁acting	-10.6935
▁stat	-10.6935
▁glass	-10.6938
▁certificate	-10.6945
▁välkomnar	-10.6945
▁ögonblick	-10.6946
▁build	-10.6948
▁eld	-10.6952
▁broke	-10.6953
▁Schengen	-10.6955
▁Öppna	-10.6958
▁implemented	-10.6965
▁quick	-10.6967
ls	-10.6977
▁kriterier	-10.6978
▁serve	-10.698
75	-10.6981
▁påverka	-10.6982
▁99	-10.6982
▁Fo	-10.6986
▁höga	-10.6986
▁fullständigt	-10.6988
▁applications	-10.6993
▁sold	-10.7
▁justice	-10.7001
▁perfekt	-10.7001
▁fuel	-10.7001
▁worried	-10.7007
har	-10.7013
▁Sta	-10.7015
▁bl	-10.7016
▁Dis	-10.7017
rig	-10.7018
▁exposure	-10.7025
▁Ditt	-10.7026
cent	-10.7028
▁hållbar	-10.703
▁Italian	-10.7031
but	-10.7031
▁gjorts	-10.7038
▁beviljas	-10.7039
▁middle	-10.7042
erande	-10.7043
▁fatta	-10.7047
+	-10.7048
▁hide	-10.7051
▁teknik	-10.7055
ose	-10.7055
45	-10.7056
▁producer	-10.7058
▁sp	-10.7064
▁föremål	-10.7066
▁sitta	-10.7071
▁sounds	-10.7075
▁punkterna	-10.7077
▁scientific	-10.7079
tagande	-10.708
fa	-10.708
TA	-10.7081
▁41	-10.7084
jo	-10.7089
▁proud	-10.7095
▁resa	-10.7095
ien	-10.7105
▁ung	-10.7105
▁miljön	-10.7108
▁sad	-10.7109
kor	-10.7109
▁opening	-10.7109
arbete	-10.7112
▁Remember	-10.7112
▁compromise	-10.7113
▁enheter	-10.7127
▁Ti	-10.7128
▁raised	-10.713
▁förutsättning	-10.7132
▁driving	-10.7132
head	-10.7135
ham	-10.7139
Men	-10.7147
▁exercise	-10.7148
▁severe	-10.7149
liv	-10.7149
▁evaluation	-10.7152
▁According	-10.716
▁Sal	-10.7161
▁signed	-10.7166
▁sustainable	-10.7167
▁sale	-10.7168
▁placebo	-10.7171
rit	-10.7172
▁interesting	-10.7175
▁applicant	-10.7175
▁hår	-10.7176
ving	-10.7177
Känner	-10.7179
▁resten	-10.7181
▁kaffe	-10.7183
▁Sedan	-10.7185
▁kropp	-10.7191
▁Per	-10.7191
▁partners	-10.7193
▁rise	-10.7195
brott	-10.7197
▁Iran	-10.7198
▁types	-10.72
▁drugs	-10.72
▁blue	-10.7201
▁earth	-10.7202
talet	-10.7202
▁anywhere	-10.7202
▁lik	-10.7203
▁Last	-10.7204
▁igång	-10.7205
▁(2	-10.7218
▁Jaså	-10.7218
▁written	-10.7219
▁imagine	-10.7219
kri	-10.7221
▁forms	-10.7223
▁fint	-10.7225
▁imorgon	-10.7226
▁pågår	-10.7226
▁omfattande	-10.7232
ations	-10.7232
▁kammaren	-10.7233
▁elements	-10.7233
▁berättar	-10.7236
▁leg	-10.7236
▁sake	-10.7236
▁Lisbon	-10.7236
▁opportunities	-10.7236
95	-10.7242
cha	-10.7242
▁medborgarna	-10.7243
▁Glöm	-10.7243
98	-10.7243
▁Bu	-10.7246
▁tillämpliga	-10.7252
▁violence	-10.7254
▁danger	-10.7254
▁eventuella	-10.7262
▁samråd	-10.7263
6/	-10.7268
ible	-10.7271
▁tyvärr	-10.7272
▁Everyone	-10.7273
▁emissions	-10.7273
band	-10.7275
▁kombination	-10.7275
▁alternativ	-10.7279
▁sist	-10.728
▁diskutera	-10.7286
▁Guds	-10.7288
▁buddy	-10.729
▁ökad	-10.7291
▁investeringar	-10.7297
▁manner	-10.73
dos	-10.7304
▁terrible	-10.7308
▁operating	-10.7308
▁High	-10.7309
▁riktig	-10.7314
▁utnyttja	-10.7315
▁recently	-10.7315
eri	-10.7316
risk	-10.7323
▁Everybody	-10.7326
▁Once	-10.733
▁stopped	-10.7333
▁förmån	-10.7336
▁inleda	-10.7336
▁55	-10.7339
ika	-10.7339
▁showed	-10.734
ther	-10.734
lat	-10.7345
▁hi	-10.7346
cu	-10.7347
▁National	-10.7348
▁observed	-10.7349
80	-10.7349
ras	-10.7353
nk	-10.7358
▁wear	-10.7358
▁earlier	-10.7362
▁färg	-10.7363
▁privat	-10.7367
▁sjukdom	-10.7369
▁English	-10.738
▁glömma	-10.738
not	-10.7381
▁Check	-10.7383
24	-10.7387
▁gruppen	-10.7391
▁BE	-10.7394
▁tender	-10.7397
▁kollega	-10.7398
▁soul	-10.7399
lös	-10.7404
ktion	-10.7411
▁Mac	-10.7412
▁Back	-10.7412
▁swear	-10.7416
▁po	-10.7416
▁statligt	-10.7427
ica	-10.7434
▁vinna	-10.7434
▁choose	-10.7435
▁neither	-10.7435
▁utsträckning	-10.7435
▁wonderful	-10.7438
bin	-10.7442
ky	-10.7444
hy	-10.7445
▁motion	-10.7448
▁negative	-10.7449
▁terrorist	-10.7449
fl	-10.7451
▁Think	-10.7453
▁vänster	-10.7456
▁compared	-10.7457
▁cop	-10.7461
▁maintain	-10.7464
▁sten	-10.7465
▁Tu	-10.7466
▁vart	-10.7467
▁skickade	-10.7469
▁konkurrenskraft	-10.7471
▁huge	-10.7474
▁grupper	-10.7481
▁permanent	-10.7484
sektorn	-10.7485
▁stål	-10.7488
▁skrev	-10.7489
ble	-10.749
▁Welcome	-10.7492
▁benefits	-10.7492
▁ovan	-10.7494
▁Out	-10.7497
▁culture	-10.7498
”.	-10.7502
tik	-10.7503
04	-10.7505
▁criminal	-10.7505
▁Amsterdam	-10.7508
▁tired	-10.7512
▁Steve	-10.7517
▁twice	-10.7526
▁medicine	-10.7527
▁Da	-10.7528
▁fa	-10.753
▁slutar	-10.7531
▁72	-10.754
▁War	-10.7545
▁2002/	-10.7546
▁kära	-10.7546
▁Such	-10.7548
▁ansikte	-10.7549
▁ekonomiskt	-10.7554
överensstämmelse	-10.7563
▁prejudice	-10.7563
▁produce	-10.7563
▁dimension	-10.7564
▁pension	-10.7564
rus	-10.7564
▁Ri	-10.7566
▁1993	-10.7567
▁trans	-10.7571
▁Che	-10.7571
sion	-10.7573
▁GEMENSKAPERNAS	-10.7581
▁infrastructure	-10.7581
▁9.	-10.7582
▁industrial	-10.7583
▁strid	-10.7588
▁2005.	-10.7589
▁grant	-10.759
ide	-10.759
kontroll	-10.7595
▁COMMUNITIES	-10.76
ister	-10.7601
▁camp	-10.7603
▁symbol	-10.7603
97	-10.7603
▁antog	-10.7606
▁wall	-10.7607
▁broken	-10.7615
▁lagar	-10.7617
▁disorders	-10.7617
▁avfall	-10.7621
▁säg	-10.7621
▁företagen	-10.7623
▁frågar	-10.7623
vatten	-10.7623
satt	-10.7624
▁Je	-10.7628
▁undertakings	-10.7631
▁increasing	-10.7632
ative	-10.764
▁limits	-10.764
▁rekommendation	-10.7644
▁frihet	-10.7645
bor	-10.7655
▁domestic	-10.7655
▁coordination	-10.7655
▁Each	-10.7658
▁Kon	-10.7661
▁älskade	-10.7661
▁Russian	-10.7665
▁sky	-10.7666
▁correct	-10.7667
-3	-10.767
▁refer	-10.7673
ized	-10.7674
▁Health	-10.7674
▁Anna	-10.7675
▁kräva	-10.7675
▁domstolen	-10.7683
ix	-10.7683
ön	-10.7687
lon	-10.769
▁fastställts	-10.7692
▁refund	-10.7695
▁equivalent	-10.7695
▁obligation	-10.7697
31	-10.7703
▁livsmedels	-10.7708
▁vision	-10.7709
▁stability	-10.7712
▁Run	-10.7721
▁Matt	-10.7722
▁accounts	-10.7725
▁seriously	-10.7729
▁Chinese	-10.773
▁Spring	-10.7731
▁drawn	-10.7734
▁nytta	-10.7739
▁union	-10.7741
▁46	-10.7745
▁saved	-10.7747
▁kod	-10.7748
▁Communities	-10.7749
▁mo	-10.775
▁Huh	-10.7752
isera	-10.7755
▁putting	-10.7758
▁lucky	-10.7759
spel	-10.7762
stad	-10.7762
eras	-10.7766
▁Leave	-10.7768
▁samhället	-10.7769
▁konstigt	-10.7771
▁rates	-10.7773
▁trevligt	-10.7776
▁informed	-10.7782
▁element	-10.7787
▁ben	-10.779
Den	-10.779
▁flight	-10.7791
▁sight	-10.7792
▁litet	-10.7797
▁weapons	-10.7798
▁internationell	-10.7805
▁monster	-10.7806
▁åsikt	-10.7807
▁contribute	-10.7807
▁brain	-10.7815
▁Billy	-10.7815
▁lo	-10.7822
▁sectors	-10.7825
▁da	-10.7828
tis	-10.7829
▁Gu	-10.7831
▁farm	-10.7834
17	-10.7834
politik	-10.7835
▁behålla	-10.7837
▁regular	-10.7838
▁ombord	-10.7838
▁independent	-10.7843
▁familjen	-10.7848
oxi	-10.7852
▁sam	-10.7853
▁betrakta	-10.7857
kom	-10.7858
70	-10.7861
▁föreskrifter	-10.7861
▁undersöka	-10.7862
▁slow	-10.7862
▁encourage	-10.7864
60	-10.7866
▁1992	-10.7869
▁400	-10.7873
▁sikt	-10.7874
▁Too	-10.7875
▁etc	-10.7883
▁Son	-10.7887
▁anpassa	-10.7889
▁owe	-10.789
▁punkter	-10.7891
▁ökade	-10.7894
▁riktlinjer	-10.7895
▁brukar	-10.7896
▁Bas	-10.7898
▁ställer	-10.7899
▁judge	-10.7899
▁[4]	-10.79
▁Actually	-10.79
äl	-10.7902
rk	-10.7903
▁Några	-10.7905
▁movie	-10.7906
▁orolig	-10.7906
▁Självklart	-10.7909
▁exist	-10.7916
▁unga	-10.7918
rant	-10.7919
▁developed	-10.792
▁shows	-10.7923
▁lay	-10.7925
▁none	-10.7927
▁lån	-10.7933
▁delay	-10.7934
▁x	-10.7934
▁metoder	-10.7936
▁tvungen	-10.7938
▁wake	-10.7941
▁dry	-10.7941
▁Rör	-10.7943
Tack	-10.7948
ong	-10.7949
▁Land	-10.7954
▁rätten	-10.7959
▁appear	-10.7959
▁insatser	-10.7961
▁Sha	-10.7962
Ä	-10.7964
▁declaration	-10.7964
▁middag	-10.7966
▁95	-10.7971
▁virus	-10.7972
cho	-10.7976
▁äga	-10.7976
It	-10.7977
▁Charles	-10.7977
▁comments	-10.7983
▁träffade	-10.7988
▁jämfört	-10.7988
▁grow	-10.7989
▁miles	-10.7992
▁kol	-10.7992
▁gives	-10.7992
▁avsikt	-10.7996
jä	-10.8
▁Whoa	-10.8002
▁wedding	-10.8003
2)	-10.8004
▁Try	-10.8005
▁öde	-10.8008
▁lämnas	-10.8018
▁söker	-10.802
▁pilot	-10.8022
▁Chris	-10.8022
på	-10.8024
▁w	-10.8026
▁släppa	-10.8028
▁climate	-10.8035
▁nånsin	-10.8037
▁framåt	-10.8037
▁killer	-10.8044
▁alternative	-10.8045
▁dealing	-10.8045
▁Air	-10.8051
▁impossible	-10.8054
▁DNA	-10.8055
els	-10.8059
▁Adam	-10.8065
▁Lite	-10.8066
ified	-10.8068
▁hearing	-10.807
▁fighting	-10.8071
▁jobbat	-10.8075
▁hämtar	-10.8077
▁förlora	-10.8077
▁fixa	-10.8077
ole	-10.8078
▁Innan	-10.808
▁Varsågod	-10.808
▁separate	-10.8081
▁Use	-10.8084
▁röstade	-10.8087
▁Ibland	-10.8094
▁moved	-10.8095
▁suppose	-10.8095
▁förenliga	-10.8098
▁ekonomi	-10.8101
▁cat	-10.8102
▁Lee	-10.8106
zi	-10.8107
▁dricka	-10.8107
ib	-10.8109
hus	-10.811
▁ligga	-10.811
företag	-10.8111
▁participation	-10.8112
▁Irland	-10.8113
▁fool	-10.8113
▁acts	-10.8115
▁budgetary	-10.8117
▁Mc	-10.8125
lösa	-10.8126
ile	-10.813
▁advice	-10.8132
07	-10.8134
▁acceptera	-10.8136
▁meter	-10.8141
▁8.	-10.8145
▁Isn	-10.8147
▁creation	-10.8151
▁motsvarar	-10.8155
▁klass	-10.8157
▁befintliga	-10.8158
▁Samma	-10.816
▁farmers	-10.816
▁factor	-10.8163
day	-10.8166
▁treat	-10.8169
▁innehålla	-10.8169
▁inbegripet	-10.8171
▁revision	-10.8172
▁fellow	-10.8172
▁åkte	-10.8176
its	-10.818
sy	-10.818
▁discuss	-10.8184
stru	-10.8186
▁ålder	-10.8189
▁Jerry	-10.8191
▁master	-10.8193
▁Använd	-10.8193
ising	-10.8197
▁storage	-10.82
▁ga	-10.8206
▁ho	-10.8207
▁pojke	-10.8208
▁emergency	-10.821
▁birthday	-10.821
▁struktur	-10.8212
▁Rights	-10.8214
▁Japan	-10.8216
part	-10.8218
▁bistånd	-10.8223
▁effekter	-10.8226
▁rich	-10.8228
29	-10.8229
▁song	-10.8229
▁Trots	-10.8232
che	-10.8235
▁birth	-10.8236
▁regioner	-10.8237
ions	-10.8239
▁Finns	-10.8239
▁kommande	-10.824
▁Carl	-10.824
▁Amendment	-10.8242
▁Fråga	-10.8242
▁brev	-10.8243
▁möjliga	-10.8246
▁ena	-10.8247
▁effektiv	-10.825
▁oh	-10.8254
▁busy	-10.8256
▁zone	-10.8256
▁risks	-10.8257
▁border	-10.8257
▁lade	-10.8263
▁king	-10.8265
▁funktion	-10.8266
▁phase	-10.8269
▁About	-10.8271
program	-10.8273
▁usually	-10.8273
▁kompromiss	-10.8277
..."	-10.828
▁wind	-10.8285
▁consideration	-10.8285
ATION	-10.8285
▁lawyer	-10.8289
▁requested	-10.8296
▁snabb	-10.8298
▁ra	-10.8298
RO	-10.83
og	-10.8303
kel	-10.8304
Så	-10.8318
▁förlorade	-10.8319
▁Most	-10.832
int	-10.8322
▁effort	-10.8323
ord	-10.8323
▁club	-10.8329
▁datum	-10.8329
▁risken	-10.8332
oo	-10.8333
▁consequences	-10.8335
▁3,	-10.8341
▁machine	-10.8342
▁lämnat	-10.8343
▁whereas	-10.8345
til	-10.8348
▁korrekt	-10.8352
▁race	-10.8353
22	-10.8359
oid	-10.8361
▁honor	-10.8363
light	-10.8365
▁conclusions	-10.8368
▁excuse	-10.8369
EGT	-10.837
▁mis	-10.8372
▁besök	-10.8373
ya	-10.8375
RA	-10.8376
▁Herre	-10.838
q	-10.8385
▁Ltd	-10.8392
▁företrädare	-10.8398
▁Ad	-10.8398
▁staden	-10.8402
21	-10.8404
▁specifika	-10.8405
sätta	-10.8406
▁Euratom	-10.8413
▁förändringar	-10.8413
lade	-10.8417
▁resultaten	-10.8419
▁speaking	-10.8423
▁förhandlingarna	-10.8424
▁Hell	-10.8429
▁passed	-10.8431
▁originating	-10.8432
▁hindra	-10.8433
▁proportion	-10.8436
▁Day	-10.8439
▁skriver	-10.844
▁bro	-10.8441
▁tillverkning	-10.8442
▁må	-10.8442
lf	-10.8446
▁determine	-10.8452
▁förtjänar	-10.8455
▁62	-10.8457
▁straff	-10.8465
PA	-10.8467
▁frågade	-10.8467
▁utvärdering	-10.8467
▁British	-10.8469
▁definitely	-10.8469
▁spot	-10.847
▁farligt	-10.8471
IS	-10.8471
▁scene	-10.8471
▁skaffa	-10.8472
det	-10.8474
▁Ed	-10.8474
▁samarbetet	-10.8476
▁Försök	-10.8481
▁Chi	-10.8481
▁finished	-10.8482
Vem	-10.8483
öv	-10.8486
▁rapporten	-10.8489
▁ordet	-10.8489
Ni	-10.8496
▁rid	-10.8501
▁calm	-10.8504
typ	-10.8506
▁Vissa	-10.8508
▁Thomas	-10.851
▁ability	-10.8512
▁units	-10.8514
pri	-10.8516
wood	-10.8516
▁Jean	-10.8521
pl	-10.8522
▁rättvisa	-10.8527
▁pleased	-10.8529
▁bought	-10.853
▁clothes	-10.853
▁blå	-10.8531
▁Today	-10.8531
rade	-10.8535
94	-10.8539
5/	-10.8542
kraft	-10.8542
▁upplysningar	-10.855
[	-10.8553
▁opened	-10.8558
▁contracts	-10.8562
▁riktning	-10.8563
▁honest	-10.8564
▁Sverige	-10.857
PL	-10.8577
▁mess	-10.8579
▁affected	-10.858
ace	-10.8581
▁appears	-10.8584
ben	-10.8588
▁conflict	-10.8589
su	-10.8591
▁Black	-10.8592
▁stater	-10.8592
▁presentera	-10.8594
▁advokat	-10.8594
▁utgifter	-10.8596
▁KOMMISSION	-10.8598
▁lines	-10.8599
▁copy	-10.8601
well	-10.8605
Re	-10.8606
tiska	-10.8607
▁discussion	-10.8612
▁utföra	-10.8613
▁identified	-10.8613
▁Chuck	-10.8616
▁(1	-10.8617
djur	-10.8617
▁02	-10.8617
▁km	-10.8618
▁ägg	-10.8618
TER	-10.862
ros	-10.862
RI	-10.8621
▁claim	-10.8622
▁Ver	-10.8624
▁bastard	-10.8632
▁Furthermore	-10.8632
▁path	-10.8632
▁Oroa	-10.8633
▁advance	-10.8635
▁entered	-10.8637
▁regime	-10.864
▁passar	-10.864
eringen	-10.8641
▁affect	-10.8644
▁exceed	-10.8647
▁sjö	-10.8652
▁Walter	-10.8652
▁omstrukturering	-10.8652
ifi	-10.8653
vers	-10.8653
▁besluta	-10.8658
log	-10.8659
▁hälso	-10.866
▁röra	-10.866
▁ve	-10.8667
tter	-10.8669
▁öl	-10.8672
▁förtroende	-10.8673
▁joke	-10.868
▁plus	-10.868
▁forever	-10.8681
▁cultural	-10.8683
▁dålig	-10.8684
▁arms	-10.8685
▁Programme	-10.8687
▁audit	-10.8691
▁2006.	-10.8695
▁structural	-10.8697
kort	-10.8705
uk	-10.8707
finner	-10.8707
▁yttrandet	-10.8707
▁anställda	-10.8708
▁Scott	-10.8709
nit	-10.8722
▁VIII	-10.8724
▁principer	-10.8724
▁alldeles	-10.8727
▁synpunkter	-10.873
▁Turn	-10.8731
▁modern	-10.8732
cing	-10.8733
cept	-10.8733
stående	-10.8734
▁regret	-10.8735
▁restructuring	-10.8735
▁ändamål	-10.8735
▁industri	-10.8742
▁failed	-10.8743
▁resultatet	-10.8745
▁registered	-10.8747
tim	-10.8752
ins	-10.8753
▁speciellt	-10.8754
▁betona	-10.8755
▁augusti	-10.8756
▁värd	-10.8757
▁surprise	-10.876
▁helping	-10.876
▁Bli	-10.8762
▁grabben	-10.8767
▁assets	-10.877
▁hinder	-10.8771
28	-10.8771
▁1990	-10.8773
▁ro	-10.8774
▁sticker	-10.8774
▁territorium	-10.8776
sett	-10.8777
▁property	-10.8777
▁barnet	-10.8779
▁flu	-10.878
▁mask	-10.8785
▁tryck	-10.8786
▁söt	-10.8791
▁finna	-10.8795
▁Hennes	-10.8797
▁introduce	-10.8798
▁reactions	-10.88
▁kvällen	-10.8801
▁förteckning	-10.8805
▁behandla	-10.8805
▁strange	-10.8805
▁ämne	-10.8806
▁känt	-10.8808
▁dröm	-10.8808
nedan	-10.8816
▁demokrati	-10.882
▁Ms	-10.8824
ture	-10.8824
▁Minns	-10.8827
ob	-10.8834
▁kliniska	-10.8835
▁allmän	-10.8835
▁56	-10.8835
▁transparency	-10.8839
▁England	-10.8839
ight	-10.884
ram	-10.884
▁fisk	-10.8848
▁användningen	-10.8849
tu	-10.8855
▁priser	-10.8856
▁afternoon	-10.886
▁pleasure	-10.886
▁Street	-10.886
▁evil	-10.8861
▁Johnny	-10.8862
▁Show	-10.8863
▁latest	-10.8865
▁satte	-10.8866
▁Fast	-10.8866
dag	-10.8869
▁[2],	-10.8869
▁marknads	-10.8872
▁jul	-10.8877
field	-10.8878
▁marknad	-10.888
▁traffic	-10.8881
▁crew	-10.8881
länderna	-10.8881
▁requires	-10.8882
▁höger	-10.8885
▁Hmm	-10.8887
▁ökar	-10.889
▁öppen	-10.8891
ologi	-10.8893
▁98	-10.8895
▁allvarligt	-10.8896
▁protein	-10.8899
▁äger	-10.8902
▁Dar	-10.8904
rop	-10.8904
▁Roger	-10.8904
▁kung	-10.8904
gon	-10.8906
▁texten	-10.8915
General	-10.8917
▁Has	-10.892
▁skuld	-10.8922
prov	-10.8923
▁Without	-10.8925
▁electronic	-10.8927
namn	-10.8927
▁obviously	-10.8927
▁61	-10.8928
▁anslutning	-10.8929
▁52	-10.8932
▁remains	-10.8938
nch	-10.8939
▁block	-10.8941
▁verkliga	-10.8943
▁Claire	-10.8944
▁committed	-10.8945
▁ensuring	-10.8945
▁Amy	-10.8948
▁stated	-10.8957
▁[3]	-10.8958
▁exceeding	-10.896
▁Wi	-10.896
▁fuckin	-10.8963
▁Gen	-10.8963
fri	-10.8965
▁Looks	-10.8967
▁tra	-10.8967
▁rep	-10.8973
▁angående	-10.8975
▁ökning	-10.8975
▁Maria	-10.8975
▁advantage	-10.898
mark	-10.8981
▁stal	-10.8981
▁allihop	-10.8983
▁Wa	-10.8991
▁adress	-10.8991
▁organisationen	-10.8998
över	-10.9002
▁quiet	-10.9003
▁positiva	-10.9006
unt	-10.9006
▁bestämma	-10.9008
▁Många	-10.9008
▁ungefär	-10.9008
▁priorities	-10.9008
▁Director	-10.9009
bit	-10.9012
▁operators	-10.9013
▁84	-10.9014
▁protokollet	-10.9014
▁underlätta	-10.9017
car	-10.9018
▁agera	-10.9019
▁drag	-10.9022
ök	-10.9025
gy	-10.9031
▁brukade	-10.9031
▁lista	-10.9033
▁försiktig	-10.9033
▁broad	-10.9038
▁details	-10.904
▁vakt	-10.9044
low	-10.9044
under	-10.9046
▁oro	-10.9048
▁option	-10.9049
▁2008.	-10.905
▁överallt	-10.9051
▁dosen	-10.9052
▁ought	-10.9052
▁musik	-10.9052
▁Stick	-10.9059
ral	-10.906
▁tredjeländer	-10.9061
85	-10.9062
▁läget	-10.9063
5.	-10.9063
▁victims	-10.9064
▁fulfil	-10.9071
▁Financial	-10.9072
▁adverse	-10.9072
▁girlfriend	-10.9072
▁kapacitet	-10.9072
▁majoritet	-10.9075
▁closer	-10.908
▁structure	-10.9088
49	-10.9091
back	-10.9093
▁worst	-10.9094
▁Skit	-10.9097
ubb	-10.9101
▁weapon	-10.9102
ult	-10.9105
▁planning	-10.9109
▁wearing	-10.9114
▁Sea	-10.9114
▁frukt	-10.9116
▁thousand	-10.9124
▁horse	-10.9126
cle	-10.9126
▁amazing	-10.9137
▁huruvida	-10.9137
▁förklarar	-10.9138
tas	-10.9138
yn	-10.9138
programmet	-10.914
▁politiken	-10.9143
▁missed	-10.9156
▁oavsett	-10.9158
▁Sometimes	-10.9158
▁congratulate	-10.9158
▁svart	-10.916
▁fart	-10.9161
▁Za	-10.9161
▁möjligheten	-10.9164
▁multi	-10.9165
▁företags	-10.9174
▁upprätta	-10.919
lock	-10.9192
▁kriget	-10.9197
▁speech	-10.9198
▁numbers	-10.9201
▁CO	-10.9206
▁strength	-10.9208
rå	-10.9208
▁Dave	-10.9213
▁lämplig	-10.9214
▁överlämna	-10.9216
▁andel	-10.9217
tte	-10.9219
1)	-10.9219
▁Grekland	-10.9223
▁Eddie	-10.9223
▁snarare	-10.9224
▁island	-10.9228
▁tough	-10.9229
▁kostnaderna	-10.9232
▁samordning	-10.9234
uck	-10.9235
▁lokal	-10.9237
▁warning	-10.9238
▁genomföras	-10.9244
▁steel	-10.9245
▁patent	-10.9245
▁quantity	-10.9245
▁Lämna	-10.9246
▁arbetstagare	-10.9247
▁principen	-10.9253
▁tariff	-10.9254
▁enhet	-10.9255
▁representatives	-10.9255
▁erkänna	-10.9258
▁nio	-10.9262
▁Jaha	-10.9263
män	-10.9263
▁Netherlands	-10.9267
▁quota	-10.927
▁hotel	-10.927
work	-10.927
▁demokratiska	-10.9273
▁forgot	-10.9274
▁reality	-10.9275
▁övervaka	-10.9275
▁talat	-10.9276
▁Africa	-10.9277
bas	-10.928
▁Rådet	-10.9283
Okej	-10.9285
▁nine	-10.9285
get	-10.9285
▁strax	-10.9289
▁tidigt	-10.929
▁skapar	-10.9292
▁Tyvärr	-10.9293
▁granska	-10.9293
▁IT	-10.9295
▁fo	-10.9295
9,	-10.9296
behandling	-10.9306
▁lagen	-10.9308
36	-10.9308
ect	-10.931
▁threat	-10.931
▁Ur	-10.931
▁partnership	-10.9311
▁Bobby	-10.9312
åtgärder	-10.9313
▁steps	-10.9316
▁realize	-10.9318
py	-10.932
▁Bi	-10.9323
▁contained	-10.9323
▁medlemmar	-10.9325
▁COM	-10.9328
▁hamnar	-10.9329
.6.	-10.9331
▁income	-10.9333
methyl	-10.9334
ain	-10.9336
▁Ru	-10.9336
▁session	-10.9337
lia	-10.9337
▁administrativa	-10.9338
-2-	-10.9339
▁hopp	-10.9341
35	-10.9343
▁minimi	-10.9344
▁sum	-10.9347
zo	-10.9348
▁invitation	-10.9355
▁fixar	-10.9361
▁corresponding	-10.9362
▁kunskap	-10.9363
▁menade	-10.9363
▁proceedings	-10.9364
sis	-10.9364
▁governments	-10.9366
din	-10.9367
låt	-10.9367
▁skriftlig	-10.9367
lle	-10.9368
Yeah	-10.9373
▁Förordningen	-10.9374
bri	-10.9375
8,	-10.9376
▁amerikanska	-10.9376
▁avsluta	-10.9376
▁Washington	-10.9377
26	-10.9377
hem	-10.9377
▁burn	-10.9378
▁kampen	-10.9393
▁flag	-10.9393
▁successful	-10.9396
cka	-10.9396
▁Sweden	-10.94
▁därefter	-10.9402
▁fortsatt	-10.9403
▁taget	-10.9404
▁pe	-10.9407
eg	-10.941
▁itu	-10.941
▁completed	-10.9411
metyl	-10.9413
▁hundred	-10.9414
▁System	-10.9414
▁läggas	-10.9417
▁fell	-10.9418
▁conference	-10.9421
▁älska	-10.9421
▁princip	-10.9421
▁sekunder	-10.9424
▁2004.	-10.9427
▁49	-10.9428
▁Honey	-10.9429
▁minskning	-10.9429
▁förlorat	-10.9436
▁fot	-10.944
▁specifically	-10.9445
▁ändrat	-10.9446
▁ögonen	-10.9457
▁Kill	-10.9459
▁mi	-10.9464
▁sources	-10.9464
▁konstatera	-10.9466
▁hereby	-10.9467
▁characteristics	-10.9468
▁underhåll	-10.947
▁symptoms	-10.9471
cer	-10.9471
▁Rom	-10.9472
▁kontroller	-10.9474
▁uppmanar	-10.9474
▁Hela	-10.9476
▁tabell	-10.9481
run	-10.9486
▁applies	-10.9488
▁surface	-10.9488
ability	-10.949
▁Skynda	-10.9492
ick	-10.9498
▁Ty	-10.9498
▁utbyte	-10.95
▁seconds	-10.9502
▁fil	-10.9505
▁suspension	-10.951
lid	-10.9514
▁page	-10.9515
vit	-10.9515
▁erfarenhet	-10.9516
▁Tra	-10.9521
▁trafik	-10.9521
heten	-10.9526
▁förändra	-10.9526
▁budgeten	-10.9526
▁Gill	-10.9527
▁består	-10.9528
▁59	-10.9529
▁militär	-10.9529
▁supported	-10.9529
AS	-10.9531
com	-10.9533
▁kris	-10.9535
▁minister	-10.9536
▁hole	-10.9537
▁Data	-10.9538
▁keeping	-10.9543
▁dress	-10.9549
▁practical	-10.955
▁enterprises	-10.9551
▁handeln	-10.9552
▁log	-10.9552
bel	-10.9554
▁Anything	-10.9555
▁Although	-10.9555
▁applying	-10.9563
▁inser	-10.9564
▁Nor	-10.9566
ray	-10.9568
▁drunk	-10.9568
▁Sit	-10.957
▁Rules	-10.9571
▁operator	-10.9573
ration	-10.9575
▁kroppen	-10.9575
▁tape	-10.9578
▁stör	-10.9582
▁Code	-10.9586
▁experiment	-10.9587
▁lagstiftningen	-10.959
▁suggest	-10.9592
▁cap	-10.9595
▁search	-10.96
▁temperature	-10.9602
▁vidtas	-10.9604
OL	-10.9605
▁efficiency	-10.9605
dom	-10.9606
▁properly	-10.9607
▁privata	-10.9612
▁hemskt	-10.9613
▁Park	-10.9614
▁pool	-10.9615
▁produktions	-10.9622
▁influence	-10.9623
▁Spanish	-10.9623
äkt	-10.9624
▁normalt	-10.9626
▁Hade	-10.9628
▁gold	-10.9628
▁Phil	-10.9629
▁EN	-10.9629
▁minut	-10.963
▁lung	-10.9634
▁factors	-10.9636
▁egenskaper	-10.9638
▁nedan	-10.964
▁SA	-10.9646
▁apartment	-10.9647
▁names	-10.9648
right	-10.9649
▁ursprungliga	-10.9654
▁rörande	-10.9655
ax	-10.9655
▁käften	-10.9655
frågor	-10.966
▁Utfärdad	-10.9663
aw	-10.9663
Å	-10.9663
▁destroy	-10.9666
▁push	-10.9667
ater	-10.9668
▁voting	-10.9668
▁Food	-10.9669
▁heat	-10.967
▁ice	-10.9672
ställning	-10.9673
▁Mal	-10.9674
▁Up	-10.9675
▁skillnad	-10.9676
▁Bilaga	-10.9677
nne	-10.9677
▁location	-10.968
▁kontakta	-10.9682
▁proof	-10.9683
▁Love	-10.9684
CE	-10.9689
▁vital	-10.969
▁seek	-10.969
▁sammanhållning	-10.969
▁introduction	-10.9691
▁checks	-10.9691
▁vinner	-10.9692
lek	-10.9693
cr	-10.9693
▁tablets	-10.9696
▁finans	-10.9699
cc	-10.9701
▁placed	-10.9703
▁VII	-10.9704
Inte	-10.9705
▁deliver	-10.9707
▁1).	-10.9707
▁händerna	-10.9712
▁Polen	-10.9716
▁kläder	-10.9716
▁device	-10.9717
tjänster	-10.9717
▁svin	-10.9718
▁smoke	-10.9722
rick	-10.9724
▁köpte	-10.9725
▁fu	-10.9725
kommittén	-10.9727
▁Mu	-10.9733
MA	-10.9737
▁Malta	-10.9739
▁para	-10.9744
▁uppmuntra	-10.9744
▁11.	-10.9747
▁sammanhang	-10.9751
▁folket	-10.9753
▁saknas	-10.9755
▁ecu	-10.9758
▁despite	-10.976
▁pregnant	-10.976
▁difficulties	-10.9761
▁stad	-10.9762
ford	-10.9763
▁åtaganden	-10.977
▁blame	-10.9773
▁gain	-10.9775
▁notification	-10.9778
▁ON	-10.9779
▁ange	-10.978
▁linje	-10.978
▁licence	-10.9782
▁highly	-10.979
▁cops	-10.9791
▁helhet	-10.9792
▁ingå	-10.9793
▁confirmed	-10.9794
▁bygger	-10.9795
▁physical	-10.9801
▁http	-10.9801
33	-10.9801
▁favor	-10.9802
▁uppfattning	-10.9803
▁svår	-10.9806
▁green	-10.9806
elsen	-10.9808
kg	-10.9809
▁88	-10.981
▁Romania	-10.9812
▁valuta	-10.9813
55	-10.9823
▁recovery	-10.9831
lam	-10.9832
eln	-10.9835
LE	-10.9838
▁veterinär	-10.9839
▁myndighet	-10.9842
tel	-10.9845
▁firm	-10.9849
▁description	-10.9852
▁12.	-10.9853
▁capable	-10.9853
27	-10.9859
▁ne	-10.987
▁förhållanden	-10.9871
press	-10.9875
▁examination	-10.9875
▁Nations	-10.9877
fil	-10.9878
▁Major	-10.9879
▁Ya	-10.9883
▁operate	-10.9883
▁förbindelser	-10.9887
▁Res	-10.9887
▁sol	-10.9888
shi	-10.9889
▁sport	-10.989
▁4,	-10.9891
tta	-10.9893
material	-10.9894
▁respond	-10.9897
▁nyss	-10.9899
▁unto	-10.99
▁Poland	-10.9901
▁falling	-10.9905
▁carrying	-10.9906
Q	-10.9907
▁Europas	-10.9908
▁lön	-10.9908
▁lyssnar	-10.9909
▁delvis	-10.9911
▁ton	-10.9912
▁försökt	-10.9917
▁Vo	-10.9918
▁tabletter	-10.9918
▁Luxembourg	-10.9922
▁presence	-10.9922
säkerhet	-10.9923
▁Fri	-10.9924
▁color	-10.9927
▁namely	-10.9929
65	-10.993
▁imposed	-10.9931
ys	-10.9934
▁Cha	-10.9941
▁47	-10.9942
▁Rumänien	-10.9945
▁solidarity	-10.9945
▁Slutligen	-10.9945
▁Våra	-10.9946
▁generation	-10.9947
▁tillåta	-10.9947
▁föredragande	-10.9948
▁lyckas	-10.9951
▁sk	-10.9951
▁listening	-10.9953
▁demon	-10.9954
▁försvara	-10.996
▁medför	-10.996
▁kapten	-10.9961
▁format	-10.9961
▁utöva	-10.9963
Om	-10.9968
▁receiving	-10.9969
▁Danmark	-10.9969
▁asshole	-10.9969
▁warm	-10.9976
▁presentation	-10.9983
▁innehåll	-10.9984
▁51	-10.9984
▁Del	-10.9984
▁combat	-10.9992
dis	-10.9992
▁Annars	-10.9992
▁prefer	-10.9993
mus	-10.9996
▁aning	-10.9999
▁Alan	-10.9999
▁Cal	-11.0001
▁moral	-11.0007
▁stolt	-11.0009
värde	-11.0014
▁kor	-11.0015
▁hittills	-11.0016
▁meddela	-11.0016
▁intressant	-11.0016
▁Import	-11.0016
▁fund	-11.0016
▁marry	-11.0017
ala	-11.0017
▁glömde	-11.0018
▁Fem	-11.002
▁jail	-11.0021
▁bottle	-11.0022
▁beakta	-11.0023
▁tillverkare	-11.0024
NA	-11.0024
▁talade	-11.0024
▁klimat	-11.0025
▁framgång	-11.0028
▁omöjligt	-11.0031
▁dum	-11.0032
▁SOM	-11.0034
CT	-11.0035
▁medlem	-11.0037
ev	-11.0038
▁ljuger	-11.0039
▁wild	-11.0039
▁percentage	-11.004
▁agents	-11.004
uch	-11.0041
▁svarar	-11.0041
ID	-11.0045
▁Didn	-11.0053
▁ras	-11.0054
▁managed	-11.0054
▁tjänste	-11.0056
▁ägna	-11.0058
▁Boy	-11.006
▁confidence	-11.0063
▁goddamn	-11.0063
▁maintenance	-11.0063
▁storm	-11.0072
▁tillgångar	-11.0074
▁named	-11.0078
chi	-11.0078
▁Greece	-11.0086
▁battle	-11.0087
▁Another	-11.0087
▁Anyway	-11.0088
▁Plan	-11.0089
▁em	-11.009
▁vice	-11.009
▁inrätta	-11.0091
▁Office	-11.0092
gra	-11.0092
▁tyska	-11.0093
▁indicate	-11.0098
▁träffas	-11.0098
▁81	-11.01
▁svåra	-11.0103
▁sönder	-11.0104
▁skyldigheter	-11.0105
▁character	-11.011
▁Conference	-11.011
▁agency	-11.011
▁Somebody	-11.011
▁kick	-11.0111
▁concept	-11.0111
▁staten	-11.0112
▁tonnes	-11.0113
▁flow	-11.0114
▁Rätt	-11.0114
▁challenge	-11.0115
▁poly	-11.0127
▁series	-11.0133
▁recognition	-11.0134
▁licences	-11.0135
▁Carter	-11.0138
ssystemet	-11.014
▁bruk	-11.0147
▁Still	-11.0148
▁recognised	-11.015
▁valid	-11.0152
▁bevisa	-11.0154
▁typer	-11.0156
▁permit	-11.0158
ery	-11.016
▁Mon	-11.016
▁hasn	-11.0161
▁rot	-11.0162
▁outcome	-11.0162
▁medicines	-11.0162
grupp	-11.0163
▁2001/	-11.0165
mal	-11.0168
ban	-11.017
▁rummet	-11.017
▁guld	-11.0174
▁civila	-11.0174
Ma	-11.0174
▁säkerheten	-11.0179
▁monitor	-11.0181
▁link	-11.0184
▁mun	-11.0187
▁useful	-11.0187
▁riktiga	-11.019
▁uppgifterna	-11.0192
▁army	-11.0193
▁j	-11.0195
▁66	-11.0195
08	-11.0196
pon	-11.0197
▁stuck	-11.0204
▁Ten	-11.0204
▁Los	-11.0205
................	-11.0206
▁primary	-11.0206
▁rapporter	-11.021
ull	-11.0212
▁nät	-11.0213
air	-11.0214
▁Ve	-11.0214
▁Oj	-11.0218
spolitiken	-11.0219
vir	-11.0219
▁planer	-11.0226
▁books	-11.0228
pra	-11.023
▁facilitate	-11.023
8.	-11.0234
▁inspection	-11.0237
▁played	-11.0238
bet	-11.0242
app	-11.0244
nden	-11.0247
▁tight	-11.0248
▁learned	-11.0248
▁gränser	-11.0251
▁operational	-11.0254
▁cohesion	-11.0254
▁possibly	-11.0254
▁regulatory	-11.0254
▁1234/2007	-11.0254
sum	-11.0254
▁oroa	-11.0256
▁Helvete	-11.0257
OR	-11.0259
syn	-11.0259
▁Måste	-11.0262
▁sur	-11.0262
▁kontrollen	-11.0265
▁offentlig	-11.0269
▁verk	-11.0269
▁tillägg	-11.027
▁Före	-11.027
marknaden	-11.0271
▁metal	-11.0271
▁nyheter	-11.0272
stöd	-11.0273
▁notified	-11.0274
▁skickar	-11.0276
▁planned	-11.028
▁92	-11.028
board	-11.0283
▁starkt	-11.0285
nic	-11.0286
▁erkännande	-11.029
▁övrigt	-11.029
▁mail	-11.0291
▁centrala	-11.0293
iva	-11.0293
▁skämt	-11.0299
▁introduced	-11.0299
▁taste	-11.0299
▁trial	-11.0299
bestämmelser	-11.03
oxid	-11.03
▁injektion	-11.0301
fen	-11.0301
▁Board	-11.0303
In	-11.0304
mbo	-11.0304
▁While	-11.0304
Yes	-11.0306
▁jävel	-11.0307
▁räddade	-11.0311
mail	-11.0311
▁iron	-11.0313
▁exporting	-11.0316
▁förutom	-11.032
▁provisional	-11.0327
såtgärder	-11.0327
▁Number	-11.0328
▁calculated	-11.033
▁victim	-11.0336
▁identifiera	-11.0342
Do	-11.0343
▁aimed	-11.0344
▁utgöra	-11.0345
▁fullständig	-11.0348
post	-11.0351
▁powder	-11.0351
▁91	-11.0353
▁svårigheter	-11.0359
▁57	-11.0359
▁förstöra	-11.0359
▁controls	-11.0359
▁Ö	-11.0359
▁freak	-11.036
▁renal	-11.0363
dor	-11.0366
▁AS	-11.0367
▁Kate	-11.0368
▁valde	-11.037
▁rat	-11.0371
▁promised	-11.0371
▁shop	-11.0371
UR	-11.0373
ux	-11.0374
▁weekend	-11.0376
▁Kyle	-11.0376
Office	-11.0379
▁colleagues	-11.038
▁Välkommen	-11.038
▁Sky	-11.0383
▁secure	-11.0386
▁begär	-11.0386
▁accordingly	-11.0389
▁paragraphs	-11.039
▁uttryck	-11.0392
▁noga	-11.0395
▁bother	-11.0397
▁skiten	-11.0397
▁Management	-11.04
▁bestämt	-11.04
▁fail	-11.0401
▁Mi	-11.0401
▁apart	-11.0401
▁knappt	-11.0405
▁sjukhuset	-11.0408
▁gay	-11.0409
▁82	-11.0415
▁målen	-11.0415
Ska	-11.0419
▁currency	-11.0424
▁judgment	-11.0424
▁således	-11.0424
▁heavy	-11.0424
▁lek	-11.0426
▁Ryan	-11.0426
▁Si	-11.0428
Jo	-11.0436
pass	-11.0437
▁600	-11.0441
▁känslor	-11.0442
▁Earth	-11.0449
europa	-11.0449
9.	-11.045
▁summer	-11.045
▁Secondly	-11.0452
▁approximately	-11.0453
▁category	-11.0454
▁funkar	-11.0454
house	-11.0456
▁positivt	-11.0457
▁finance	-11.0458
▁com	-11.0459
”,	-11.0461
▁laugh	-11.0464
DA	-11.0467
▁Bulgaria	-11.0473
▁Col	-11.0476
▁exempelvis	-11.0476
ack	-11.0478
▁skepp	-11.0479
mic	-11.0479
▁förlorar	-11.048
▁greatest	-11.0482
▁initiatives	-11.0483
2003	-11.0485
▁vessel	-11.0486
▁kar	-11.0487
▁Samtidigt	-11.0487
▁signs	-11.0488
ification	-11.0489
syra	-11.0491
▁conduct	-11.0491
vikt	-11.0493
▁chemical	-11.0495
can	-11.0496
▁admit	-11.0498
▁rakt	-11.0498
▁protokoll	-11.0501
▁dar	-11.0502
rom	-11.0504
▁skjuter	-11.0507
▁sexual	-11.0508
▁Rose	-11.0508
▁metall	-11.0512
illa	-11.0514
▁codes	-11.0515
▁closely	-11.0522
▁viktprocent	-11.0523
▁Little	-11.0523
▁Doctor	-11.0523
▁elections	-11.0525
▁Nederländerna	-11.0526
law	-11.0526
▁jord	-11.0527
/3	-11.0531
▁preparation	-11.0537
▁confirm	-11.0537
rot	-11.054
▁kallad	-11.0547
▁91/414/	-11.0548
▁Procedure	-11.0548
▁Berlin	-11.0549
▁Grace	-11.0549
▁Fi	-11.0554
▁ordna	-11.0564
▁walking	-11.0569
▁mutual	-11.0573
▁Policy	-11.0573
▁nämna	-11.0573
long	-11.0576
▁rikta	-11.0582
▁testing	-11.0586
▁metod	-11.0586
38	-11.0587
▁faith	-11.0595
▁svär	-11.0595
▁safeguard	-11.0598
▁58	-11.0598
▁Kevin	-11.0599
▁administrering	-11.06
▁commitments	-11.0603
▁(5)	-11.0604
▁ECU	-11.0605
▁slåss	-11.0606
down	-11.0607
▁infrastruktur	-11.0608
▁Louis	-11.061
▁improvement	-11.0612
▁Hall	-11.0612
93	-11.0612
▁requirement	-11.0614
bal	-11.0614
▁bringing	-11.0615
▁helped	-11.0615
▁Simon	-11.0616
▁defence	-11.0623
▁eligible	-11.0623
▁Moreover	-11.0623
▁willing	-11.0625
▁kommitté	-11.0629
▁protected	-11.063
▁förändring	-11.0632
▁1000	-11.0634
uppgifter	-11.0636
▁Post	-11.0637
▁Bring	-11.0645
▁Ladies	-11.0648
▁äntligen	-11.0648
▁namnet	-11.0651
▁leta	-11.0652
▁tillräcklig	-11.0653
including	-11.0654
32	-11.0654
▁ways	-11.0655
▁anbud	-11.0659
▁kontrakt	-11.0661
▁tea	-11.0664
▁includes	-11.0667
▁Pete	-11.0672
▁BESLUT	-11.0673
▁[5]	-11.0673
▁crap	-11.0674
▁Mother	-11.0675
▁kvinnan	-11.0675
iff	-11.0677
▁Home	-11.0678
▁Eric	-11.0679
zon	-11.0681
ej	-11.0692
(1)(	-11.0694
▁statistik	-11.0696
▁chair	-11.0697
www	-11.0698
▁entitled	-11.0698
▁guide	-11.0698
▁[...]	-11.0698
▁Hos	-11.0698
▁centre	-11.0698
▁Prata	-11.0701
▁machines	-11.0705
▁samarbeta	-11.0708
▁otroligt	-11.0709
af	-11.0713
▁lu	-11.0715
▁döden	-11.0715
▁comment	-11.0716
▁sover	-11.0716
▁orsaka	-11.0717
▁vanligt	-11.0719
▁solidaritet	-11.0722
▁granskning	-11.0723
▁Next	-11.0723
▁koncentrera	-11.0723
▁istället	-11.0723
▁Hol	-11.0727
▁Pan	-11.0728
▁föra	-11.0739
▁64	-11.074
CH	-11.0741
▁Hal	-11.0747
▁degree	-11.0748
▁improving	-11.0748
▁crucial	-11.0748
▁föregående	-11.075
▁attempt	-11.075
TS	-11.075
▁Sex	-11.0754
▁formal	-11.0757
▁effectively	-11.0764
▁kasta	-11.0764
▁finding	-11.0766
▁anger	-11.0766
▁infusion	-11.0768
41	-11.0771
ette	-11.0774
▁temporary	-11.0774
punkt	-11.0775
las	-11.0775
gör	-11.0777
▁54	-11.0779
▁UK	-11.078
▁anläggningar	-11.0782
▁jump	-11.0783
▁stabilitet	-11.0783
▁flying	-11.0783
▁själ	-11.0784
▁befogenheter	-11.0785
▁värme	-11.0785
▁gemenskapernas	-11.0786
pla	-11.0786
▁Ki	-11.0788
sky	-11.0789
▁suspect	-11.079
▁surprised	-11.0794
▁derogation	-11.0795
▁boyfriend	-11.08
▁genast	-11.08
larna	-11.08
hin	-11.0806
▁mandate	-11.0807
▁Total	-11.0807
’)	-11.0809
▁spoke	-11.0812
gående	-11.0812
point	-11.0813
▁lycka	-11.0816
ox	-11.0817
▁tjäna	-11.0818
▁checked	-11.0819
▁dödat	-11.082
▁sticka	-11.0821
▁Dina	-11.0822
▁04	-11.0824
▁rik	-11.0825
▁utvidgningen	-11.0825
▁became	-11.0825
▁collection	-11.0826
▁growing	-11.0827
Article	-11.0832
▁hej	-11.0832
löst	-11.0833
▁bära	-11.0836
▁Trans	-11.0843
emi	-11.0843
▁teach	-11.0846
/1	-11.0847
▁sleeping	-11.0847
ries	-11.0849
▁styrka	-11.0849
PT	-11.0849
▁poverty	-11.085
▁årliga	-11.0851
stat	-11.0851
▁mobil	-11.0852
▁glömt	-11.0853
▁införas	-11.0855
▁chefen	-11.0855
▁suck	-11.0856
▁väljer	-11.0858
▁button	-11.0859
▁extended	-11.0859
border	-11.0859
▁defend	-11.086
▁linked	-11.0861
▁stats	-11.0861
▁utvecklings	-11.0861
▁discussed	-11.0863
mper	-11.0864
▁Christian	-11.0866
ments	-11.0872
▁upset	-11.0876
▁affärs	-11.0878
▁profit	-11.0878
▁sample	-11.0881
▁hungrig	-11.0881
ball	-11.0882
▁reasonable	-11.0882
European	-11.0884
ätt	-11.0886
▁Ren	-11.0888
▁67	-11.0891
3)	-11.0892
▁53	-11.0894
▁grej	-11.0894
AD	-11.0898
ani	-11.09
▁ones	-11.0901
▁tv	-11.0903
▁truly	-11.0904
▁host	-11.0905
▁camera	-11.0908
▁genomförs	-11.091
▁världens	-11.091
▁banks	-11.091
▁aspekter	-11.0911
▁Action	-11.0911
▁forces	-11.0912
▁engine	-11.0912
▁hoppa	-11.0913
▁Ny	-11.0923
▁provning	-11.0923
▁users	-11.0925
▁businesses	-11.0925
▁gentemot	-11.0927
▁competence	-11.0928
▁överstiger	-11.0928
▁manufacturer	-11.0931
▁Arthur	-11.0932
▁utifrån	-11.0933
▁såna	-11.0934
▁engelska	-11.0936
▁vetenskapliga	-11.0937
▁intention	-11.0938
▁continued	-11.094
▁överföring	-11.0944
sföreskrifter	-11.0945
ably	-11.0945
kod	-11.0947
Be	-11.0947
stäm	-11.0949
▁leading	-11.095
▁consultation	-11.095
▁complex	-11.0952
ress	-11.0954
▁dying	-11.0954
▁Andy	-11.0956
▁valt	-11.0956
kä	-11.096
▁ansträngningar	-11.096
▁dela	-11.0962
▁wide	-11.0966
▁Holy	-11.097
▁repeat	-11.097
▁93	-11.0973
▁2007.	-11.0973
▁vattnet	-11.0974
cher	-11.0974
non	-11.0975
grupper	-11.0975
▁bevara	-11.0976
▁Något	-11.0979
▁Indeed	-11.0981
▁mängd	-11.0981
sperioden	-11.0982
▁fjärde	-11.0984
▁manager	-11.0992
ath	-11.0995
▁corner	-11.0996
andet	-11.0998
▁cent	-11.1003
▁påpeka	-11.1006
▁guarantees	-11.1011
▁gods	-11.1016
tten	-11.1018
▁und	-11.1023
▁kär	-11.1025
ort	-11.1025
▁u	-11.1029
▁built	-11.1031
▁campaign	-11.1031
▁tabled	-11.1031
▁incident	-11.1033
▁natur	-11.1037
nade	-11.1038
▁politiskt	-11.1041
▁DE	-11.1044
▁Ingenting	-11.1045
nder	-11.1047
▁Nåt	-11.1048
▁studie	-11.1055
▁lösningar	-11.1056
▁Rachel	-11.1058
ura	-11.106
48	-11.1062
test	-11.1062
▁practices	-11.1067
39	-11.1069
▁Head	-11.1071
▁begära	-11.1077
”)	-11.1079
.3.	-11.1082
ever	-11.1083
▁Amerika	-11.1084
▁hungry	-11.1084
▁Alice	-11.1085
43	-11.1089
bot	-11.1091
▁pal	-11.1092
▁16.	-11.1092
▁CN	-11.1094
lla	-11.1101
heter	-11.1101
▁rapportera	-11.1102
▁grand	-11.1103
▁storlek	-11.1106
los	-11.1107
▁construction	-11.111
rate	-11.1112
ili	-11.1114
▁cm	-11.1114
▁körde	-11.1114
▁stack	-11.1115
▁fr	-11.1117
▁ansvarig	-11.1119
▁omröstning	-11.1119
▁byrån	-11.1121
ew	-11.1125
ology	-11.1126
▁weak	-11.1128
gor	-11.1134
ider	-11.1134
▁AUTHORISATION	-11.1136
▁befolkningen	-11.114
▁supporting	-11.1142
▁feels	-11.1143
▁nämnde	-11.1143
▁delivered	-11.1147
making	-11.1147
▁tillgänglig	-11.1148
går	-11.1152
▁foder	-11.1153
▁jo	-11.1162
▁öppet	-11.1162
▁exponering	-11.1163
0,	-11.1164
▁totalt	-11.1168
▁belong	-11.1171
▁berättat	-11.1175
Kom	-11.1178
▁euron	-11.1179
MP	-11.1181
▁rain	-11.1183
▁adequate	-11.1184
pol	-11.1185
▁kring	-11.1186
▁Colonel	-11.1189
▁compensation	-11.1189
▁concentration	-11.1189
▁människorna	-11.119
34	-11.1191
lev	-11.1193
▁värsta	-11.1194
An	-11.1194
▁verklig	-11.1194
▁bigger	-11.1195
▁forced	-11.1196
ON	-11.1197
ident	-11.1197
▁quotas	-11.1201
ola	-11.1203
▁plants	-11.1207
▁litar	-11.1207
▁Kim	-11.1208
skatt	-11.1208
▁regionen	-11.1208
lv	-11.1211
▁lycklig	-11.1212
12.	-11.1215
▁Question	-11.1215
▁Belgien	-11.1216
cin	-11.1217
hmm	-11.1218
▁Denmark	-11.1222
▁improved	-11.1225
▁allmänt	-11.1226
bro	-11.1228
ged	-11.1228
▁quit	-11.1231
end	-11.1233
-4	-11.1234
▁lovely	-11.1234
▁Hurry	-11.124
▁controlled	-11.1242
▁Belgium	-11.1242
▁easier	-11.1242
▁families	-11.1242
▁vuxna	-11.1242
▁yttre	-11.1242
▁Emily	-11.1244
▁sl	-11.1246
▁sorts	-11.1247
▁ansåg	-11.1248
pin	-11.125
▁pop	-11.1252
▁spread	-11.1253
▁entirely	-11.1254
▁alarm	-11.1262
▁mid	-11.1263
▁networks	-11.1263
▁kallat	-11.1264
▁tolv	-11.1267
▁promoting	-11.1269
▁registration	-11.1269
▁appeal	-11.1269
▁competitiveness	-11.1269
▁image	-11.1271
▁strike	-11.1271
ana	-11.1274
▁allvarlig	-11.1276
▁mate	-11.128
▁vanlig	-11.1283
▁Five	-11.1284
▁Mag	-11.1285
▁locked	-11.1285
▁cells	-11.1286
▁lived	-11.1288
▁fritt	-11.1289
▁Art	-11.1289
▁Sergeant	-11.1296
▁losing	-11.1296
▁darling	-11.1296
▁student	-11.1298
▁dagligen	-11.1298
IL	-11.1298
▁1.4	-11.1299
Kan	-11.13
▁ansökningar	-11.1303
vel	-11.1305
▁träffat	-11.1305
▁Case	-11.1305
ugh	-11.1306
br	-11.1308
▁gratulera	-11.131
▁meningen	-11.1321
▁alcohol	-11.1321
▁Luxemburg	-11.1322
cur	-11.1323
://	-11.1323
▁understanding	-11.1324
▁ökat	-11.1325
teknik	-11.1325
▁gen	-11.1326
pre	-11.1326
▁Naturligtvis	-11.1327
ost	-11.1327
▁river	-11.1329
▁2009.	-11.133
▁KN	-11.133
ple	-11.133
▁86	-11.1333
▁kyl	-11.1337
▁nation	-11.1339
▁faller	-11.1342
▁87	-11.1344
▁4.2	-11.1344
99	-11.1345
▁charges	-11.1347
47	-11.1347
▁relax	-11.1349
▁transmission	-11.1349
▁byta	-11.1351
▁mil	-11.1354
vil	-11.1356
▁finansiera	-11.1356
▁escape	-11.1359
▁propose	-11.1363
▁Mmm	-11.1364
gr	-11.1366
▁challenges	-11.137
Oh	-11.1373
▁nödvändig	-11.1373
▁Såg	-11.1374
▁GODKÄNNANDE	-11.1376
▁extension	-11.1376
▁partnerskap	-11.1376
▁pan	-11.1377
▁allocated	-11.1378
▁13.	-11.1378
▁grunden	-11.1379
▁agriculture	-11.1381
▁mån	-11.1381
▁åtagande	-11.1381
▁120	-11.1383
lly	-11.1383
ual	-11.1386
.4.	-11.1387
▁lämnats	-11.1391
▁tackar	-11.1394
▁recommendations	-11.1395
▁Fla	-11.1397
organ	-11.1406
▁bevilja	-11.1407
▁pistol	-11.1409
▁tasks	-11.1411
▁hjälpte	-11.1413
▁finger	-11.1414
mål	-11.1415
▁250	-11.1415
(5)	-11.1419
▁öppnar	-11.142
▁African	-11.1423
▁2010.	-11.1423
▁transit	-11.1424
oli	-11.1426
▁fördel	-11.1427
▁grounds	-11.1428
▁dude	-11.143
▁memory	-11.143
▁discharge	-11.143
▁micro	-11.143
▁burden	-11.1431
tio	-11.1439
▁scale	-11.144
▁ända	-11.1441
▁sentence	-11.1442
▁manage	-11.1444
▁schemes	-11.1447
▁mainly	-11.1447
▁differences	-11.1448
äv	-11.145
▁ungdomar	-11.1451
▁piss	-11.1453
▁Lot	-11.1457
▁Agriculture	-11.1457
▁unemployment	-11.1458
▁slutsatser	-11.1458
▁wondering	-11.1458
▁fixing	-11.1458
cor	-11.146
▁entity	-11.146
▁paying	-11.1462
▁Four	-11.1462
▁carefully	-11.1467
▁integrated	-11.1468
ini	-11.1473
▁tu	-11.1476
▁slutligen	-11.1476
▁vaccine	-11.1477
▁tidpunkt	-11.1478
lip	-11.1478
88	-11.1482
rak	-11.1483
▁bestämmer	-11.1485
▁möta	-11.1485
▁empty	-11.1485
▁Inom	-11.1485
09	-11.1489
▁effektiva	-11.1489
▁lugn	-11.1489
▁chain	-11.149
▁candidate	-11.149
uri	-11.1492
tryck	-11.1495
▁Long	-11.1496
,"	-11.1504
▁tids	-11.1504
44	-11.1506
▁Trade	-11.151
▁73	-11.1511
▁absence	-11.1512
▁rural	-11.1512
▁Chief	-11.1512
▁extend	-11.1515
iserade	-11.1515
▁hänger	-11.1519
2002	-11.152
▁offered	-11.152
▁Pass	-11.1522
▁stake	-11.1522
▁desire	-11.1523
▁India	-11.1528
▁mrs	-11.1528
▁sektor	-11.1528
▁börjat	-11.1533
▁utforma	-11.1533
▁consistent	-11.1534
▁mag	-11.1535
▁höjd	-11.1536
got	-11.1538
▁diabetes	-11.1539
▁guard	-11.154
▁Ledsen	-11.154
▁ledamot	-11.1541
And	-11.1542
▁tillsyn	-11.1543
▁institutionerna	-11.1544
▁assist	-11.1544
▁Want	-11.1545
lik	-11.1546
TE	-11.1548
▁dam	-11.1549
▁tree	-11.155
▁ka	-11.1556
▁reporting	-11.1556
ates	-11.1557
▁samordna	-11.1559
träd	-11.1562
▁Area	-11.1566
▁raw	-11.1566
▁bullshit	-11.1567
▁statistics	-11.1567
▁creating	-11.1567
▁angry	-11.1567
▁Ted	-11.157
46	-11.1572
oxy	-11.1577
▁]	-11.1577
mmer	-11.1579
slut	-11.1579
▁öppenhet	-11.1581
▁europeiskt	-11.1587
▁Nå	-11.1588
▁immediate	-11.1589
▁ö	-11.1591
▁Talk	-11.1593
▁Tor	-11.1594
ligen	-11.1595
ern	-11.1598
▁Lugn	-11.1598
▁Ly	-11.1599
▁tillträde	-11.16
▁lös	-11.1601
▁exception	-11.1601
▁adjustment	-11.1603
▁Brian	-11.1604
mplementing	-11.1604
▁fucked	-11.1605
SA	-11.1605
▁tradition	-11.1605
ogen	-11.1609
▁Ask	-11.1611
Ö	-11.1612
▁noise	-11.1612
nny	-11.1612
▁seed	-11.1613
▁ships	-11.1615
ära	-11.1624
▁statliga	-11.1625
LO	-11.1625
▁articles	-11.1625
▁Lucy	-11.1626
lus	-11.1626
▁offentliggjorts	-11.1626
▁split	-11.1633
▁Ber	-11.1634
▁hero	-11.1635
▁spannmål	-11.164
▁Sara	-11.1641
▁urgent	-11.1645
▁pump	-11.1649
▁wrote	-11.165
▁lärt	-11.165
▁Indien	-11.165
▁Lex	-11.165
▁Ku	-11.1653
▁flickan	-11.1654
▁97	-11.1657
▁CYP	-11.1662
▁Ner	-11.1665
▁discrimination	-11.1665
▁butter	-11.1667
dia	-11.1668
▁Star	-11.1669
▁records	-11.1669
▁statements	-11.1669
▁maskiner	-11.167
▁op	-11.1672
▁pig	-11.1676
▁försvann	-11.1677
▁nöje	-11.1677
▁allocation	-11.1678
▁63	-11.1678
▁Irish	-11.1678
skar	-11.1678
▁Vadå	-11.1679
▁ba	-11.1681
▁IU	-11.1684
▁competitive	-11.1687
▁upprepa	-11.1689
▁powerful	-11.169
▁sensitive	-11.169
▁trend	-11.1691
▁cute	-11.1695
▁anslag	-11.1696
▁konkreta	-11.1697
▁personen	-11.1697
▁Parlamentet	-11.1699
▁recognise	-11.17
▁Unfortunately	-11.1705
▁nämnda	-11.1705
gin	-11.1707
▁north	-11.1711
▁utskott	-11.1712
▁eventuellt	-11.1714
▁Emma	-11.1715
▁mental	-11.1721
▁marken	-11.1722
▁becoming	-11.1722
SC	-11.1725
▁beaktas	-11.1729
ville	-11.1729
▁tredjeland	-11.1733
▁agencies	-11.1733
▁identitet	-11.1733
arbetstillfällen	-11.1733
▁täcka	-11.1733
▁asylum	-11.1734
▁velat	-11.1734
▁Ali	-11.1735
rik	-11.1735
varande	-11.1735
▁kollar	-11.174
▁pr	-11.1743
▁Austria	-11.1745
▁berör	-11.1746
▁spring	-11.1746
▁showing	-11.1747
▁faktorer	-11.1748
▁budskap	-11.1753
▁strengthen	-11.1756
▁förteckningen	-11.1759
▁vackra	-11.1761
klass	-11.1761
▁marriage	-11.1761
▁innocent	-11.1761
▁antogs	-11.1762
(1),	-11.1764
▁park	-11.177
sol	-11.1771
related	-11.1775
▁avdelning	-11.1776
uv	-11.1777
▁dumping	-11.1777
▁Queen	-11.1778
▁figured	-11.1785
87	-11.1788
▁Lieutenant	-11.1789
▁aircraft	-11.179
lie	-11.1793
▁liked	-11.1793
▁registrering	-11.1794
▁1.1	-11.1795
▁dansa	-11.1796
pos	-11.1798
▁waters	-11.1798
▁Vice	-11.1809
▁värt	-11.181
ordning	-11.1811
bak	-11.1811
▁trap	-11.1816
▁tycks	-11.1818
▁contrary	-11.1818
▁erbjuda	-11.1819
▁Susan	-11.1819
▁Morgan	-11.1819
▁ledde	-11.1821
▁därifrån	-11.1823
Ta	-11.1824
▁italienska	-11.1826
▁flickvän	-11.1826
▁assume	-11.1829
jan	-11.1832
▁borders	-11.1834
ons	-11.1835
▁2020	-11.1836
▁hänvisning	-11.1839
▁substantial	-11.1841
▁obvious	-11.1841
▁undersökningen	-11.1842
▁staying	-11.1844
▁År	-11.1845
▁afford	-11.1846
▁Standard	-11.1846
▁liver	-11.1847
▁Professor	-11.1849
▁CIA	-11.1852
▁importen	-11.1852
sprogram	-11.1852
▁flat	-11.1856
▁utrikes	-11.1857
▁su	-11.1858
▁produkterna	-11.1859
▁Sub	-11.1861
▁serum	-11.1863
▁Cam	-11.1864
▁guns	-11.1868
fä	-11.1869
ich	-11.1873
▁fina	-11.1873
▁Strasbourg	-11.1874
▁utvärdera	-11.1874
▁Uncle	-11.1875
▁uppenbart	-11.1876
▁lovade	-11.1879
▁mus	-11.188
▁map	-11.1882
position	-11.1884
▁dick	-11.1885
▁needle	-11.1886
▁occur	-11.1886
Min	-11.1887
/2	-11.1889
▁hård	-11.189
▁lies	-11.1894
dar	-11.1897
ii	-11.1897
▁urge	-11.1899
▁Cyprus	-11.1903
▁Brown	-11.1903
▁bottom	-11.1903
▁PÅ	-11.1905
▁prevention	-11.1906
▁ljud	-11.1911
▁frekvens	-11.1911
▁fas	-11.1913
iz	-11.1916
▁arter	-11.1917
▁invited	-11.1917
rummet	-11.1921
(2),	-11.1923
42	-11.1925
ita	-11.1926
▁papper	-11.1926
▁remove	-11.1929
▁pratat	-11.1929
▁reducing	-11.1931
läggning	-11.1932
▁Test	-11.1936
när	-11.1938
▁kredit	-11.1938
cell	-11.1939
▁ru	-11.1943
▁tydlig	-11.1943
▁2014	-11.1945
—	-11.1946
▁Ze	-11.1947
▁employees	-11.195
▁meetings	-11.1953
▁morse	-11.1957
cro	-11.1958
▁Tur	-11.1959
▁promotion	-11.196
rör	-11.1961
▁Parties	-11.1962
▁ansvaret	-11.1963
▁skol	-11.1964
▁garantier	-11.1967
▁magic	-11.1968
▁loans	-11.1971
vy	-11.1972
▁administered	-11.1974
lum	-11.1974
bank	-11.1974
▁banken	-11.1975
▁forgive	-11.1975
▁detail	-11.1981
stånd	-11.1987
▁Bulgarien	-11.1988
▁Chloe	-11.1988
▁church	-11.1988
▁Control	-11.1989
▁claims	-11.199
▁Ooh	-11.199
▁ordföranden	-11.199
▁sjukdomar	-11.1992
▁starka	-11.1992
▁Eli	-11.1993
▁uttrycka	-11.1995
▁performed	-11.1996
ugg	-11.1996
▁Fr	-11.1997
▁rare	-11.1998
▁Tar	-11.1999
▁solutions	-11.1999
ied	-11.2001
▁declared	-11.2002
▁efficient	-11.2003
ute	-11.2003
råd	-11.2003
▁lärde	-11.2005
▁nose	-11.2007
▁74	-11.2009
▁äkta	-11.2011
ori	-11.2011
▁mördare	-11.2013
▁statistical	-11.2017
▁immigration	-11.2017
▁pet	-11.2022
▁Road	-11.2024
▁svarta	-11.203
▁notify	-11.2032
▁visas	-11.2032
iti	-11.2033
▁gränsen	-11.2034
▁definitionen	-11.2034
▁projektet	-11.2035
SK	-11.2037
▁aktiva	-11.2038
▁bidrar	-11.2045
▁gatan	-11.2046
▁Döda	-11.2047
▁Sitt	-11.2047
▁hemlighet	-11.2048
nce	-11.2051
▁gillade	-11.2052
▁förbättring	-11.2061
▁sand	-11.2061
▁purchase	-11.2063
ero	-11.2063
▁considers	-11.2064
ji	-11.2065
▁trevlig	-11.2074
▁Pakistan	-11.2075
▁captain	-11.2075
▁injury	-11.2075
▁funktionssätt	-11.2075
▁existence	-11.2075
▁1991	-11.2078
▁considerable	-11.2078
▁vita	-11.2079
▁spanska	-11.208
▁intyg	-11.208
▁deserve	-11.2081
▁fånga	-11.2085
AP	-11.2086
▁prepare	-11.2087
wing	-11.2092
▁brist	-11.2093
▁konkurrensen	-11.2094
ningarna	-11.2094
▁Indian	-11.2096
78	-11.21
nis	-11.21
▁dubbel	-11.2102
▁symtom	-11.2102
ME	-11.2103
▁Organisation	-11.2104
▁latter	-11.2105
▁ändrade	-11.2105
▁antagits	-11.2106
▁Down	-11.2107
klar	-11.2107
▁upptagen	-11.2107
1996	-11.2108
problem	-11.2108
ane	-11.2109
▁fraud	-11.2109
▁sektorer	-11.2109
▁dåliga	-11.211
ney	-11.2111
▁Em	-11.2115
▁destroyed	-11.2116
produktion	-11.2119
▁Th	-11.2119
▁neck	-11.2121
▁allting	-11.2123
▁Date	-11.2124
▁protest	-11.2127
fr	-11.2128
▁knock	-11.2131
▁råder	-11.2131
▁aktörer	-11.2133
▁veterinary	-11.2133
▁exporterande	-11.2136
▁south	-11.2137
▁uppskattar	-11.2142
▁items	-11.2142
▁spy	-11.2148
die	-11.215
▁parti	-11.2151
▁bond	-11.2151
▁Mediterranean	-11.2154
▁vial	-11.2155
▁stolen	-11.2158
▁ch	-11.2158
▁Åk	-11.216
▁Österrike	-11.2162
▁solid	-11.2163
▁deltar	-11.2165
▁Luke	-11.2167
aga	-11.2168
▁wi	-11.2171
▁mu	-11.2174
▁ämnet	-11.2174
▁Law	-11.2176
▁inställning	-11.2177
▁78	-11.2177
▁godkänna	-11.2179
▁toppen	-11.218
▁Find	-11.218
▁bedöma	-11.2181
▁orders	-11.2185
US	-11.2186
83	-11.2187
kal	-11.2188
▁Public	-11.2191
▁picked	-11.2191
bok	-11.2191
▁television	-11.2191
▁påminna	-11.2191
▁tele	-11.2192
▁söka	-11.2193
▁Lady	-11.2193
▁eating	-11.2194
▁older	-11.2195
▁acceptable	-11.2195
verk	-11.2197
▁Verkligen	-11.2197
▁skott	-11.2197
gift	-11.22
▁säng	-11.2203
▁ersätta	-11.2203
hor	-11.2204
▁knäpp	-11.2207
▁ty	-11.2208
▁träffar	-11.2208
eth	-11.221
▁Joey	-11.2211
▁Budget	-11.2213
pha	-11.2213
▁yrkes	-11.2214
▁GmbH	-11.222
▁categories	-11.222
▁surveillance	-11.222
▁nervous	-11.2221
▁enemy	-11.2221
▁selling	-11.2221
iner	-11.2222
▁hiding	-11.2224
▁förhandlingar	-11.2224
▁Oliver	-11.2224
▁beredd	-11.2227
▁AVS	-11.2227
IA	-11.2234
eriet	-11.2236
▁intend	-11.2236
mission	-11.2236
▁fired	-11.2239
▁object	-11.2239
▁stone	-11.2239
▁Both	-11.2247
▁förekommande	-11.2251
▁bränsle	-11.2251
▁discussions	-11.2252
▁6,	-11.2252
▁hjärtat	-11.2252
▁uttryckt	-11.2254
▁välkomna	-11.2254
▁Uppfattat	-11.2256
▁geographical	-11.2257
2013	-11.2259
▁nånting	-11.2261
top	-11.2262
▁grave	-11.2263
▁Work	-11.2264
▁figures	-11.2266
▁thousands	-11.2267
▁examine	-11.2267
▁globala	-11.227
▁affärer	-11.2271
▁forest	-11.2272
ai	-11.2273
▁ti	-11.2276
▁innebära	-11.2276
sha	-11.2279
▁Energy	-11.2279
▁skogen	-11.228
▁nyckel	-11.228
▁error	-11.2284
projekt	-11.2284
▁slip	-11.2286
tjänst	-11.2291
▁Absolut	-11.2292
▁hud	-11.2293
▁(3	-11.2298
▁bridge	-11.2304
▁religion	-11.2306
▁consult	-11.2308
länder	-11.2309
▁disposal	-11.2309
▁revenue	-11.2309
▁distance	-11.2309
▁lyckades	-11.231
▁fält	-11.231
▁Six	-11.2315
▁spelade	-11.2315
▁demonstrate	-11.2322
▁artist	-11.2329
▁regel	-11.2329
▁diskriminering	-11.2331
▁developments	-11.2332
OP	-11.2338
▁involving	-11.2339
▁perspective	-11.2339
▁instance	-11.2339
▁tillfälligt	-11.2339
▁framgår	-11.2341
▁Förstår	-11.2341
▁Pat	-11.2342
▁kriterierna	-11.2342
Nu	-11.2351
▁uppmärksamma	-11.2352
jon	-11.2353
▁wood	-11.2353
▁witness	-11.2355
▁sidor	-11.2361
▁koppla	-11.2361
91	-11.2361
▁märkning	-11.2361
▁71	-11.2361
roll	-11.2364
stan	-11.2365
▁unacceptable	-11.2368
▁konsumenterna	-11.2369
▁Fel	-11.2373
▁nöjd	-11.2374
ano	-11.2376
▁bloody	-11.2376
åg	-11.2376
load	-11.2377
▁godkänts	-11.2378
▁Pu	-11.2379
kla	-11.2381
▁förteckna	-11.2383
▁använde	-11.2383
▁significantly	-11.2384
▁lättare	-11.2387
oper	-11.2388
▁transactions	-11.2388
ale	-11.2389
▁sing	-11.239
she	-11.2395
▁Afrika	-11.2398
▁Smith	-11.2398
▁cooperate	-11.2398
▁olje	-11.2398
▁värdet	-11.2399
▁score	-11.2399
▁refuse	-11.2402
▁Lou	-11.2405
sak	-11.2406
▁96	-11.2411
Man	-11.2412
komst	-11.2417
▁konst	-11.2417
▁launch	-11.2419
landet	-11.242
▁institutional	-11.2421
▁ruin	-11.2423
▁ekonomin	-11.2427
▁science	-11.2428
▁wa	-11.2428
▁verksamma	-11.2429
▁Larry	-11.2429
▁female	-11.2429
▁utrymme	-11.2433
▁tjejen	-11.2434
▁rejected	-11.2436
▁färdig	-11.2438
tz	-11.244
▁strategic	-11.244
▁djupt	-11.2444
fartyg	-11.2445
atur	-11.2446
That	-11.2449
▁imported	-11.2456
verksamhet	-11.2458
▁Sheriff	-11.2458
▁hurry	-11.2458
oni	-11.2459
▁flickor	-11.246
▁tjänar	-11.2463
▁Hämta	-11.2463
▁faktiska	-11.2463
▁Island	-11.2465
▁brittiska	-11.2465
dagen	-11.2472
▁förmåga	-11.2472
bart	-11.2472
ång	-11.2472
lagstiftningen	-11.2472
▁intern	-11.2473
▁dare	-11.2473
▁dator	-11.2475
▁load	-11.2477
hör	-11.2477
FF	-11.2481
▁ansvariga	-11.2481
.2.	-11.2482
▁besvara	-11.2486
▁chicken	-11.2487
kop	-11.2488
▁column	-11.2488
CFSP	-11.2488
▁regelbundet	-11.2488
▁lyckats	-11.249
förordning	-11.2492
▁mode	-11.2493
jor	-11.2495
grav	-11.2496
▁generally	-11.2497
▁tillåter	-11.2498
▁male	-11.25
▁plötsligt	-11.2503
mann	-11.2505
▁uttalande	-11.2506
ari	-11.2506
▁behörighet	-11.2507
▁aktiv	-11.2509
▁cor	-11.251
▁crack	-11.251
▁nätverk	-11.2513
▁sh	-11.2514
▁article	-11.2515
tisk	-11.2515
▁components	-11.2515
▁Jösses	-11.2519
▁grönsaker	-11.2519
▁trading	-11.2519
▁everywhere	-11.2519
▁thy	-11.2523
▁keys	-11.2523
▁Jackson	-11.2523
▁Better	-11.2524
▁William	-11.2525
▁närheten	-11.2527
▁drawing	-11.2528
▁constitute	-11.2528
▁steal	-11.2534
▁KOM	-11.2536
▁lugna	-11.2541
4)	-11.2541
rry	-11.2543
▁förpackning	-11.2543
▁Pop	-11.2548
▁grateful	-11.2549
▁Unless	-11.255
rn	-11.255
itis	-11.2551
▁rörlighet	-11.2551
▁priserna	-11.2554
▁planen	-11.2556
100	-11.2559
▁vända	-11.2561
4-	-11.2565
▁trials	-11.2568
sprocessen	-11.2569
▁Sk	-11.2571
▁rök	-11.2574
▁Cypern	-11.2579
▁shift	-11.2579
▁Chamber	-11.2579
▁Par	-11.258
▁faster	-11.2582
▁Gri	-11.2583
▁informationen	-11.2584
based	-11.2584
▁kämpa	-11.2585
▁Him	-11.2585
Ha	-11.2585
▁teknisk	-11.2586
▁selected	-11.2588
▁HIV	-11.2588
▁(0)	-11.2591
▁comp	-11.2591
▁stocks	-11.2593
▁shape	-11.2593
▁typgodkännande	-11.2596
▁drinking	-11.2597
dri	-11.2601
▁transaktioner	-11.2603
▁Start	-11.2605
▁arbetsmarknaden	-11.2605
▁positiv	-11.2605
▁Rick	-11.2608
▁reaction	-11.2608
rän	-11.2609
▁conversation	-11.261
▁identification	-11.261
▁Pen	-11.2612
▁rekommenderas	-11.2617
▁Fire	-11.2617
▁bone	-11.2618
IR	-11.2621
▁smärta	-11.2626
▁Bor	-11.2626
▁talas	-11.2627
▁Cut	-11.263
meter	-11.2633
▁refunds	-11.2638
▁eggs	-11.2638
ches	-11.2639
▁route	-11.2639
▁hyper	-11.2639
▁tit	-11.2639
▁glömmer	-11.2641
▁RE	-11.2642
▁farliga	-11.2642
▁healthy	-11.2644
▁omröstningen	-11.2645
ction	-11.2645
▁clearance	-11.2645
ele	-11.265
▁unable	-11.2651
▁övervaknings	-11.2651
▁medicin	-11.2652
▁följde	-11.2656
ony	-11.2658
▁reflect	-11.2659
▁pray	-11.2661
▁sjukhus	-11.2662
▁duration	-11.2662
▁exportbidrag	-11.2662
▁Irak	-11.2663
▁Reg	-11.2666
▁värden	-11.2666
▁Ger	-11.2669
▁Bru	-11.267
drag	-11.267
▁eh	-11.267
▁breast	-11.2671
hr	-11.2672
▁silver	-11.2672
▁Jeff	-11.2673
▁ke	-11.2675
▁sällskap	-11.2677
▁kvantiteter	-11.2678
▁Tim	-11.2678
▁Tycker	-11.2678
how	-11.2678
▁beräknas	-11.2679
▁slakt	-11.268
▁diskussion	-11.2684
▁växt	-11.2685
▁identify	-11.2686
▁spara	-11.2687
tillstånd	-11.2693
▁exports	-11.2695
▁holder	-11.2695
▁tagits	-11.2697
37	-11.2699
▁accompanied	-11.2702
▁cirka	-11.2702
▁hälften	-11.2702
▁Happy	-11.2702
▁låtsas	-11.2702
▁rå	-11.2704
▁tankar	-11.2704
▁herself	-11.2704
▁bunch	-11.2704
▁Forget	-11.2705
▁stopp	-11.2706
▁Cole	-11.2706
lk	-11.2706
▁Fin	-11.2707
AM	-11.2707
pu	-11.2708
▁Roy	-11.271
▁mötet	-11.271
▁alkohol	-11.271
▁konsekvenser	-11.2711
pack	-11.2713
▁Bro	-11.2713
amin	-11.2715
▁gilla	-11.2715
▁Läs	-11.2719
▁verktyg	-11.2719
mä	-11.272
▁Qua	-11.2726
▁intresserad	-11.2726
73	-11.2727
▁jordbruket	-11.2727
▁Gre	-11.2728
▁hall	-11.2729
▁rättslig	-11.2731
▁Typ	-11.2732
▁Their	-11.2732
▁äktenskap	-11.2733
▁kitchen	-11.2733
▁centralbanken	-11.2733
▁Baby	-11.2733
▁Fucking	-11.2734
edragningslistan	-11.2735
▁snygg	-11.2738
▁deposit	-11.274
mil	-11.2741
▁hoping	-11.2741
mes	-11.2743
rap	-11.2744
▁priset	-11.2745
▁ledare	-11.2748
▁skrivelse	-11.2749
▁sökande	-11.2749
▁Ned	-11.275
64	-11.2751
▁sända	-11.2751
▁verkligt	-11.2755
▁opposition	-11.276
▁calculation	-11.2764
▁interview	-11.2764
▁electricity	-11.2764
▁usual	-11.2765
▁Functioning	-11.2766
information	-11.2766
▁ear	-11.2766
ue	-11.2767
▁favorite	-11.2768
▁obtain	-11.277
▁Aldrig	-11.2772
▁Paper	-11.2774
▁begränsa	-11.2775
▁krisen	-11.278
▁83	-11.2787
▁breath	-11.279
▁Greek	-11.2795
▁contributions	-11.2796
comp	-11.2796
▁mechanism	-11.2796
ali	-11.2799
▁demonstration	-11.2799
▁bleeding	-11.28
▁Behöv	-11.2801
gå	-11.2806
▁tvinga	-11.2806
▁hypo	-11.2807
amino	-11.281
▁ost	-11.281
unk	-11.2811
läge	-11.2812
AC	-11.2813
▁historien	-11.2814
▁miljon	-11.2816
▁murdered	-11.2819
▁resolutionen	-11.282
▁bröllop	-11.2821
▁cars	-11.2822
1.1	-11.2824
▁fantastisk	-11.2824
▁Särskild	-11.2826
▁identity	-11.2826
▁säljer	-11.2826
▁händelse	-11.2826
▁monetary	-11.2827
▁migration	-11.2828
vor	-11.283
▁reserv	-11.283
▁OR	-11.283
▁kors	-11.283
▁Lycka	-11.2834
miss	-11.2836
▁tekniskt	-11.2836
Bra	-11.2837
▁Kat	-11.2837
▁övergripande	-11.2837
▁tåg	-11.2837
▁kärn	-11.2842
▁slutade	-11.2843
▁Doc	-11.2847
▁covering	-11.2849
1999	-11.285
▁försvinner	-11.2857
To	-11.2857
▁Agenda	-11.2857
▁lägenhet	-11.2858
▁Until	-11.2858
▁positions	-11.2858
▁tjejer	-11.2861
▁rail	-11.2862
▁None	-11.2862
Mo	-11.2863
▁skatt	-11.2864
▁verket	-11.2866
▁folks	-11.2868
▁lin	-11.2874
▁grundförordning	-11.2875
▁försäkra	-11.2877
▁dogs	-11.2881
förordningen	-11.2881
responsibilities	-11.2888
▁Jacob	-11.2889
▁chief	-11.2889
▁restrictions	-11.2889
▁Bad	-11.2892
▁village	-11.2893
ST	-11.2893
▁68	-11.2894
▁bilateral	-11.2896
CC	-11.2904
59	-11.2906
▁conclude	-11.2906
skt	-11.2908
Co	-11.2912
▁ye	-11.2912
bur	-11.2914
vert	-11.2915
68	-11.2915
▁omfattning	-11.2917
▁Jason	-11.2918
▁tank	-11.2919
▁insist	-11.2919
ös	-11.2919
▁Exactly	-11.292
▁nånstans	-11.292
▁Foreign	-11.292
▁ideas	-11.2922
6)	-11.2924
fy	-11.2924
län	-11.2925
▁händelser	-11.2928
mot	-11.2929
amine	-11.293
▁Roman	-11.2931
▁Mama	-11.2932
▁doktorn	-11.2933
▁domstol	-11.2933
▁förebyggande	-11.2936
▁diseases	-11.2941
▁hållet	-11.2941
Se	-11.2943
▁lays	-11.2944
▁förstås	-11.2947
▁konventionen	-11.2947
list	-11.2949
▁balans	-11.295
▁leaflet	-11.2951
▁length	-11.2951
▁nämns	-11.2951
▁tillverkaren	-11.2953
▁Jones	-11.2955
▁client	-11.2956
▁förhandla	-11.2958
▁Ross	-11.2959
▁sides	-11.296
▁believed	-11.296
jer	-11.2961
▁foto	-11.2961
sized	-11.2965
▁Lily	-11.2967
▁bud	-11.2976
▁wishes	-11.2977
▁shares	-11.2977
▁listan	-11.2977
▁counter	-11.2978
▁Flo	-11.2981
abel	-11.2983
▁COUNCIL	-11.2983
▁bathroom	-11.2983
▁DETTA	-11.2983
▁1)	-11.2984
▁Dutch	-11.2984
▁rena	-11.2984
72	-11.2984
lösning	-11.2985
▁Master	-11.2987
▁deadline	-11.2987
▁Ready	-11.2988
▁Tänker	-11.299
▁starta	-11.2994
0/	-11.2994
▁label	-11.2995
oh	-11.2998
▁uppnås	-11.3002
▁intra	-11.3002
rådet	-11.3003
▁Tala	-11.3003
▁OM	-11.3005
▁Inter	-11.3008
ological	-11.3014
▁Transport	-11.3015
▁Except	-11.3015
▁begränsningar	-11.3015
▁experts	-11.3017
▁försiktighet	-11.3017
riktar	-11.3018
terna	-11.302
▁toppmötet	-11.3022
▁olycka	-11.3022
värden	-11.3024
▁avgöra	-11.3024
▁uppstår	-11.3024
ato	-11.3025
▁världs	-11.3027
▁photo	-11.3028
box	-11.3029
▁tillfället	-11.3031
▁häst	-11.3032
▁separat	-11.3033
▁Helt	-11.3034
▁nåd	-11.3035
dumping	-11.304
▁platsen	-11.3041
sses	-11.3041
▁Gro	-11.3042
▁räkna	-11.3043
▁känsla	-11.3044
hav	-11.3045
▁flyga	-11.3045
▁Mat	-11.3046
▁Ställ	-11.3047
▁syringe	-11.3047
▁modified	-11.3047
▁föreslagna	-11.3047
▁conformity	-11.3047
EF	-11.305
▁Lisa	-11.305
▁frequency	-11.3052
▁designated	-11.3052
▁expression	-11.3054
▁karaktär	-11.3055
▁notes	-11.3056
▁grav	-11.3057
▁använt	-11.3059
▁enkel	-11.3064
▁utvecklas	-11.3064
life	-11.3065
-5	-11.3073
▁cry	-11.3074
▁dans	-11.3075
▁avslutad	-11.3078
▁duktig	-11.308
▁Life	-11.308
▁complicated	-11.308
▁respectively	-11.3083
▁Barn	-11.3084
▁obe	-11.3085
▁interna	-11.3086
▁producera	-11.3088
▁convinced	-11.3089
strategi	-11.3089
▁långa	-11.309
▁Kar	-11.309
▁uppmana	-11.309
▁Hand	-11.3092
▁legs	-11.3092
▁laga	-11.3094
▁läst	-11.3095
▁wire	-11.3097
▁reforms	-11.3098
ester	-11.3099
▁mar	-11.3101
ades	-11.3102
ui	-11.3104
▁upstairs	-11.3111
▁transparent	-11.3111
▁nöd	-11.3111
▁doses	-11.3111
▁app	-11.3112
▁erbjuder	-11.3112
▁Förutom	-11.3112
CO	-11.3114
▁grab	-11.3117
▁minsta	-11.3117
▁läser	-11.3118
delen	-11.3118
ställningar	-11.3118
▁suffer	-11.3118
▁förväntar	-11.312
lj	-11.3125
nr	-11.3125
▁76	-11.3127
▁verksamheten	-11.3128
▁Anne	-11.3133
▁beredda	-11.3137
▁onto	-11.3138
▁functioning	-11.3141
▁ljög	-11.3143
ache	-11.3143
▁supervision	-11.3143
▁Safety	-11.3143
frågan	-11.3144
▁trace	-11.3145
▁guilty	-11.3145
▁judicial	-11.3149
▁files	-11.3149
▁hundra	-11.315
åd	-11.3151
▁amend	-11.3155
▁utbildnings	-11.3155
▁negativa	-11.3159
▁1999/	-11.3159
▁producent	-11.316
▁köper	-11.316
▁Polisen	-11.3161
▁Ce	-11.3161
1997	-11.3162
▁nivåer	-11.3164
▁fond	-11.3167
▁Com	-11.3167
▁pin	-11.3168
bild	-11.3169
84	-11.3171
▁meal	-11.3173
▁97/	-11.3176
▁favorit	-11.3176
▁Title	-11.3177
▁Leo	-11.3177
▁driva	-11.3179
▁utvidgning	-11.318
områden	-11.3181
▁bett	-11.3183
▁chosen	-11.3185
just	-11.3186
▁arrived	-11.3186
▁Name	-11.3195
EUR	-11.3195
gle	-11.3196
▁Ram	-11.3196
▁pulled	-11.3196
▁bilder	-11.3198
ellt	-11.3198
▁normally	-11.3199
▁1.2	-11.32
▁vänlig	-11.3201
fect	-11.3202
▁dl	-11.3206
▁mon	-11.3206
▁Czech	-11.3207
▁Structural	-11.3207
▁3-	-11.3208
▁Women	-11.3208
▁labelling	-11.3208
▁betalas	-11.3209
▁Water	-11.3211
xi	-11.3214
▁aims	-11.3223
▁justified	-11.3225
ula	-11.3225
▁removed	-11.3229
▁snabbare	-11.323
▁valet	-11.3231
ese	-11.3231
▁tusen	-11.3233
▁Pra	-11.3234
71	-11.3236
▁Kul	-11.3236
▁låna	-11.3237
▁Probably	-11.324
krav	-11.324
▁Stand	-11.3242
▁Hit	-11.3244
▁Julie	-11.3245
▁reformer	-11.3247
▁familje	-11.3247
▁appropriations	-11.3248
▁följt	-11.3248
▁Slå	-11.3248
▁katastrof	-11.3248
▁Sil	-11.3248
▁pojkvän	-11.325
▁located	-11.3251
▁recommendation	-11.3251
▁2)	-11.3254
▁Kid	-11.3256
▁leader	-11.3257
▁During	-11.3261
▁frågorna	-11.3263
▁Rule	-11.3265
▁befolkning	-11.3266
▁vegetables	-11.3268
▁avlägsna	-11.3272
▁jämställdhet	-11.3272
▁Kapten	-11.3273
▁hy	-11.3278
▁Comp	-11.3279
▁kostar	-11.3281
▁förstör	-11.3282
▁Funds	-11.3286
▁bug	-11.3287
▁skills	-11.3288
dokument	-11.3291
då	-11.3291
81	-11.3293
▁ledamöterna	-11.3295
▁når	-11.3296
▁Constitution	-11.3298
excluding	-11.3301
▁2-	-11.3301
▁Ph	-11.3303
water	-11.3305
▁CHAPTER	-11.3305
▁KAPIT	-11.3305
▁beskrivs	-11.3305
▁explanation	-11.3305
▁Barroso	-11.3305
▁released	-11.3306
▁räkning	-11.3308
▁Free	-11.3308
▁robot	-11.331
▁Abby	-11.331
▁nedsatt	-11.3311
▁raring	-11.3312
▁aluminium	-11.3314
▁places	-11.3314
▁slutsatsen	-11.3319
▁career	-11.3319
▁fysiska	-11.332
▁militära	-11.3321
▁väntat	-11.3323
▁varmt	-11.3327
▁månaderna	-11.3328
▁betalning	-11.3328
▁bröst	-11.3329
▁stänga	-11.333
▁Grand	-11.3331
▁dött	-11.3332
▁5,	-11.3333
gh	-11.3335
uni	-11.3335
▁transporter	-11.3336
▁Full	-11.3337
▁överensstämmer	-11.3338
▁rescue	-11.3338
▁classification	-11.3338
▁koppling	-11.3341
▁väntade	-11.3343
▁Övriga	-11.3345
▁views	-11.3345
▁assess	-11.3347
lang	-11.3349
▁Cap	-11.335
▁Vårt	-11.335
▁Menar	-11.3351
▁perfectly	-11.3351
▁avgifter	-11.3355
▁Bort	-11.3359
▁normala	-11.3359
▁utmärkt	-11.3363
rely	-11.3366
▁förklaring	-11.3366
▁1.3	-11.3368
IM	-11.3369
▁föreslagit	-11.3371
▁återigen	-11.3371
▁investments	-11.3371
▁stole	-11.3371
▁forsknings	-11.3371
▁TILL	-11.3372
▁livs	-11.3373
▁skett	-11.3373
▁Kelly	-11.3374
▁li	-11.3374
▁parliamentary	-11.3375
-3-	-11.3376
hel	-11.3376
▁ACP	-11.3378
kret	-11.3379
▁delivery	-11.3379
enhet	-11.3379
▁4.1	-11.3379
put	-11.3381
▁periods	-11.3382
▁hjälte	-11.3383
▁mördade	-11.3383
ema	-11.3383
So	-11.3383
▁department	-11.3383
86	-11.3383
▁adult	-11.3384
▁godkända	-11.3384
mber	-11.3385
hl	-11.3387
▁examined	-11.339
▁Sh	-11.339
▁Lugna	-11.339
ici	-11.3391
▁bryta	-11.3395
▁Beslut	-11.3396
▁gi	-11.3397
TT	-11.3399
▁verkan	-11.3401
▁gate	-11.3402
▁Fer	-11.3403
▁tvivel	-11.3404
▁Storbritannien	-11.3404
▁familiar	-11.3404
▁ställde	-11.3404
▁Edward	-11.3404
grund	-11.3405
2-	-11.3408
konventionen	-11.3408
etyl	-11.3411
▁vann	-11.3413
▁typen	-11.3417
▁occasion	-11.3418
▁vackert	-11.3421
hål	-11.3422
fal	-11.3425
▁vinst	-11.3428
▁lab	-11.3428
▁Ä	-11.343
▁Guys	-11.3431
▁Mål	-11.3432
▁ID	-11.3433
▁tie	-11.3434
▁hat	-11.3434
▁[6]	-11.3437
▁Anti	-11.3438
▁daddy	-11.3439
▁licens	-11.3439
▁pojkar	-11.344
▁mmol	-11.344
▁precisely	-11.3441
▁närmaste	-11.3441
▁reglering	-11.3442
▁incorporated	-11.3443
erats	-11.3446
▁multilateral	-11.3446
▁svaret	-11.3447
▁bound	-11.345
▁languages	-11.3452
▁Kor	-11.3453
▁cream	-11.3453
▁journalist	-11.3455
▁cycle	-11.3456
▁krossa	-11.3462
▁anpassning	-11.3465
plats	-11.3465
fatt	-11.3466
▁beef	-11.3467
▁Research	-11.347
▁Punkt	-11.347
▁began	-11.3472
▁Sin	-11.3475
▁lord	-11.3475
▁stable	-11.3476
cus	-11.3476
▁flagg	-11.3478
take	-11.3484
▁mänsklig	-11.3485
▁cup	-11.3485
▁2004,	-11.3487
▁regn	-11.3487
▁abuse	-11.3487
▁profile	-11.3491
▁önska	-11.3491
▁Annexes	-11.3493
▁chansen	-11.3493
▁recorded	-11.3494
▁lnte	-11.3496
▁title	-11.3497
▁förutsatt	-11.3504
▁förekommer	-11.3505
-1-	-11.3506
▁combined	-11.3508
▁insats	-11.352
▁handen	-11.352
1998	-11.3521
full	-11.3522
eringar	-11.3522
delning	-11.3522
▁define	-11.3524
▁ryggen	-11.3525
▁järn	-11.3531
▁Borde	-11.3532
oy	-11.3533
▁bur	-11.3533
▁kategori	-11.3533
77	-11.3535
▁Mexico	-11.3537
▁motherfucker	-11.3537
▁Skjut	-11.3537
▁pocket	-11.3537
▁dispute	-11.3537
▁någonstans	-11.3537
▁Friday	-11.3537
▁governing	-11.354
▁Regional	-11.3541
▁födelsedag	-11.3543
▁Fred	-11.3547
▁släpper	-11.3547
▁utöver	-11.3548
▁Gold	-11.3548
▁conducted	-11.355
▁hello	-11.3552
▁Endast	-11.3552
▁fördrag	-11.3553
▁Service	-11.3553
▁(4	-11.3555
▁ringt	-11.3555
▁snackar	-11.3555
▁Bel	-11.3556
▁effektivitet	-11.3556
▁lagring	-11.3561
▁lied	-11.3561
▁prioriteringar	-11.3569
▁Association	-11.357
▁protocol	-11.357
▁Detective	-11.3571
▁warrant	-11.3572
▁Älskling	-11.3575
▁upphov	-11.3575
2007	-11.3575
sort	-11.3577
▁leaves	-11.3581
▁turning	-11.3581
▁fur	-11.3583
Vill	-11.3584
ase	-11.3585
▁Iraq	-11.3587
▁läge	-11.3587
ene	-11.3588
istic	-11.3589
▁verka	-11.3589
ima	-11.3589
tog	-11.3593
Sa	-11.3594
ANDE	-11.3595
▁begränsad	-11.3598
▁represents	-11.36
▁carbon	-11.36
avtal	-11.3601
52	-11.3601
▁förvaltnings	-11.3602
▁installation	-11.3602
dle	-11.3603
▁Andrew	-11.3604
▁skynda	-11.3604
▁jämt	-11.3605
▁entities	-11.3605
organisationer	-11.3609
▁Korea	-11.3612
▁reply	-11.3612
▁shoes	-11.3613
▁fill	-11.3615
område	-11.3622
▁dealt	-11.3622
▁invite	-11.3622
▁Sounds	-11.3624
▁noted	-11.3624
film	-11.3625
EK	-11.3625
▁switch	-11.3629
How	-11.363
▁si	-11.363
bat	-11.3637
▁verification	-11.3638
▁Mel	-11.3638
bye	-11.3641
▁spa	-11.3641
sson	-11.3641
▁Yep	-11.3641
▁avstånd	-11.3645
▁dropped	-11.3645
▁ris	-11.3645
book	-11.3646
▁Utfärda	-11.3646
2011	-11.365
▁brister	-11.365
▁database	-11.3651
▁flygplan	-11.3651
▁dan	-11.3651
▁havs	-11.3651
▁mono	-11.3652
▁69	-11.3655
▁infection	-11.3656
▁tunnel	-11.3659
▁känd	-11.366
▁Rome	-11.3661
värdet	-11.3661
▁SMEs	-11.3664
▁gotten	-11.3664
▁2011.	-11.3668
▁kurs	-11.3669
▁Absolutely	-11.3672
▁summit	-11.3672
▁Middle	-11.3672
▁association	-11.3672
▁Alright	-11.3673
▁taxi	-11.3677
▁relativ	-11.368
▁fourth	-11.368
▁engaged	-11.3683
▁fett	-11.3684
lop	-11.3685
▁finner	-11.3687
▁innehållande	-11.3687
ization	-11.3689
▁(6)	-11.3689
▁NO	-11.3693
▁79	-11.3694
▁certificates	-11.3695
▁ordentligt	-11.3696
▁smak	-11.37
▁lagts	-11.3701
▁träna	-11.3705
NING	-11.3705
▁Animal	-11.3706
free	-11.3706
▁dejt	-11.3706
▁tolkning	-11.3707
▁urin	-11.3709
▁sword	-11.3709
▁Laura	-11.3709
sprodukter	-11.3709
▁involve	-11.3711
▁whoa	-11.3715
▁pojken	-11.3716
▁reklam	-11.372
▁sammanträde	-11.3721
dda	-11.3721
▁th	-11.3721
▁upphöra	-11.3721
▁participate	-11.3723
ces	-11.3724
▁demonstrated	-11.3725
▁bearbetning	-11.3726
▁Yet	-11.3728
▁slutliga	-11.3732
▁hadn	-11.3734
▁Environment	-11.3736
▁revolution	-11.374
▁Vietnam	-11.374
▁sängen	-11.374
▁Jenny	-11.374
▁appointment	-11.3741
▁desert	-11.3742
▁Au	-11.3742
▁Know	-11.3744
win	-11.375
▁leverans	-11.375
gläder	-11.375
▁survive	-11.3757
fråga	-11.3758
▁proceed	-11.3759
▁KOMMISSIONEN	-11.3763
▁sov	-11.3764
▁filter	-11.3765
▁född	-11.3767
▁protecting	-11.3767
▁bull	-11.3768
▁shirt	-11.377
▁maximal	-11.3771
▁överraskning	-11.3774
▁handla	-11.3774
▁facing	-11.3775
▁plast	-11.3775
▁foster	-11.3775
▁kontrolleras	-11.3776
▁sending	-11.3777
Då	-11.3778
▁rev	-11.3779
▁utgå	-11.3779
▁liknar	-11.3779
last	-11.3779
▁heads	-11.3782
▁Cat	-11.3782
▁förlåt	-11.3783
▁organised	-11.3783
▁geografiska	-11.3784
.2004,	-11.3787
▁director	-11.3789
▁ständigt	-11.379
▁suffering	-11.3791
▁platser	-11.3791
▁Ol	-11.3792
▁hellre	-11.3792
▁stabil	-11.3793
språk	-11.3797
kär	-11.3798
▁reject	-11.3799
ermining	-11.3799
▁loan	-11.3801
▁processen	-11.3803
▁bullet	-11.3803
▁öga	-11.3807
vara	-11.3808
▁easily	-11.3809
▁facilities	-11.3809
▁Besides	-11.3809
▁huvudsakligen	-11.3809
▁division	-11.3809
▁Trust	-11.381
▁skrivit	-11.3811
▁dirty	-11.3812
intyg	-11.3813
▁Reference	-11.3816
▁connected	-11.3816
▁definitivt	-11.382
▁utför	-11.3823
▁Eurostat	-11.3825
▁egenskap	-11.3828
▁Officer	-11.383
▁gear	-11.3832
▁uncle	-11.3836
sförfarandet	-11.3836
ria	-11.3837
▁traditional	-11.3837
▁cha	-11.3841
▁Centre	-11.3843
▁attitude	-11.3843
▁kommunikation	-11.3843
▁rapporterats	-11.3846
ira	-11.3846
▁Fick	-11.3847
▁IP	-11.3853
▁solve	-11.3855
▁Fort	-11.3857
▁planerade	-11.3858
▁dagens	-11.3864
LY	-11.3868
▁prioritera	-11.387
ktor	-11.387
57	-11.3872
▁lift	-11.3874
person	-11.3874
room	-11.3875
lay	-11.3875
▁Ungern	-11.3878
▁compatible	-11.3878
▁förfogande	-11.3878
▁återvända	-11.3878
▁farbror	-11.3879
▁transferred	-11.3879
that	-11.3879
kten	-11.3879
▁suitable	-11.388
pris	-11.3881
▁samhälle	-11.3885
▁vård	-11.3887
69	-11.3888
▁Hang	-11.3889
▁shooting	-11.389
▁innehållet	-11.3892
lis	-11.3892
▁2012.	-11.3896
▁maintained	-11.3896
▁förstått	-11.3898
▁Trevligt	-11.3899
▁seemed	-11.3899
▁jordbrukare	-11.3902
▁införande	-11.3902
▁thinks	-11.3903
▁Bay	-11.3904
▁Jävla	-11.3904
▁serie	-11.3906
▁stycken	-11.3906
ric	-11.3907
▁starkare	-11.3907
▁textile	-11.3909
delar	-11.3911
▁changing	-11.3912
▁renewable	-11.3912
▁sömn	-11.3912
▁ingenstans	-11.3912
▁brådskande	-11.3913
56	-11.3914
myndigheten	-11.3916
▁Wood	-11.3917
domstolen	-11.3918
▁server	-11.3919
▁critical	-11.392
▁sorg	-11.3921
▁94	-11.3922
▁Many	-11.3924
▁Howard	-11.3927
▁Jess	-11.3927
▁vägrar	-11.3928
▁Stöd	-11.3928
▁terror	-11.3928
▁preparations	-11.3929
0)	-11.3932
▁03	-11.3932
▁feelings	-11.3932
gal	-11.3933
▁behandlar	-11.3933
▁riktlinjerna	-11.3936
lägga	-11.3937
▁discussing	-11.394
ppa	-11.3944
▁överleva	-11.3946
▁bjuda	-11.3947
▁ghost	-11.3947
▁klagomål	-11.3947
▁Albert	-11.3948
▁Read	-11.3949
▁fordonet	-11.3951
▁owner	-11.3952
▁gro	-11.3953
▁online	-11.3957
▁mikro	-11.3959
rie	-11.3962
▁09	-11.3962
kast	-11.3963
bus	-11.3965
▁köp	-11.3968
▁poäng	-11.397
▁SE	-11.3971
▁demands	-11.3971
▁däck	-11.3972
fredsställande	-11.3973
▁snabba	-11.3975
bär	-11.3976
gla	-11.3976
▁bekräfta	-11.3978
▁republiken	-11.3982
▁understood	-11.3982
▁teeth	-11.3983
▁knä	-11.3984
▁uppfyllda	-11.3985
▁goal	-11.3989
wan	-11.3989
▁modell	-11.3991
sökningsperioden	-11.3992
▁föreslå	-11.3995
sområdet	-11.3995
▁invandring	-11.3996
▁införandet	-11.3998
▁skapade	-11.4
ledning	-11.4002
▁77	-11.4005
ifrån	-11.4005
▁Bal	-11.4005
▁select	-11.4006
▁underbar	-11.4007
spolitik	-11.4016
funktion	-11.4017
▁Swedish	-11.4017
▁inflytande	-11.4017
▁deficit	-11.4017
▁försvinna	-11.4017
▁lt	-11.4018
▁roof	-11.4018
▁Brad	-11.4018
▁Hel	-11.4019
hole	-11.402
nternationella	-11.4022
▁Shall	-11.4022
sledamoten	-11.4022
▁kinesiska	-11.4024
▁Kalla	-11.4025
▁qualified	-11.4027
▁Following	-11.4027
▁Marie	-11.4028
ål	-11.4028
▁McC	-11.4031
▁medveten	-11.4033
▁findings	-11.4034
sprincipen	-11.4036
▁Helen	-11.4037
▁options	-11.404
vad	-11.4042
▁desto	-11.4044
gången	-11.4048
▁strict	-11.4049
gat	-11.4052
51	-11.4052
▁biggest	-11.4053
▁sacrifice	-11.4053
▁attached	-11.4053
▁minskade	-11.4054
huset	-11.4055
▁background	-11.4055
▁panel	-11.4057
▁gravid	-11.4058
▁skapat	-11.4059
▁angivna	-11.4059
▁Victor	-11.406
▁laboratorie	-11.406
▁noticed	-11.4063
▁measurement	-11.4063
▁Grattis	-11.4063
▁margin	-11.4063
▁2009/	-11.4065
▁anledningen	-11.4069
▁bird	-11.407
Al	-11.407
ition	-11.4071
▁schedule	-11.4071
2009	-11.4072
▁doser	-11.4073
▁relative	-11.4074
▁översyn	-11.4079
håller	-11.408
AB	-11.4082
▁uttala	-11.4082
▁snacka	-11.4084
▁z	-11.4086
▁upprörd	-11.4088
▁Skicka	-11.4089
▁lager	-11.409
▁Greg	-11.4093
▁luktar	-11.4094
▁bill	-11.4096
rande	-11.4097
▁Fall	-11.41
▁remaining	-11.4101
▁skydds	-11.4102
/6	-11.4102
▁Ste	-11.4106
▁loves	-11.4107
▁hette	-11.4107
▁River	-11.4108
▁determination	-11.4109
▁display	-11.4114
istiska	-11.4114
tern	-11.4119
▁accounting	-11.4121
▁FÖRSÄLJNING	-11.4123
▁Hungary	-11.4123
▁smile	-11.4124
2002,	-11.4127
▁Stor	-11.4128
▁soft	-11.4129
▁Bur	-11.4129
▁pensions	-11.4129
▁utsläpp	-11.413
IP	-11.4132
▁Place	-11.4132
▁representation	-11.4135
▁ordförandeskap	-11.4135
▁reaktion	-11.4136
▁Ken	-11.4136
fu	-11.4137
▁standarder	-11.4137
Le	-11.4137
▁bord	-11.4142
▁meddelandet	-11.4143
▁undersökningar	-11.4145
▁3.1	-11.4146
▁dreams	-11.4152
▁colleague	-11.4152
visning	-11.4154
▁Fran	-11.4154
▁pollution	-11.4159
▁lov	-11.4159
79	-11.416
sätter	-11.4161
▁%)	-11.4162
▁signature	-11.4162
▁inledande	-11.4165
5)	-11.4165
MENT	-11.4166
▁exported	-11.4167
▁stories	-11.4168
▁Gjorde	-11.4168
vakt	-11.4169
EE	-11.4173
rd	-11.4174
varor	-11.4175
▁Första	-11.4179
▁mod	-11.4181
▁answers	-11.4187
nger	-11.4187
▁personally	-11.4192
ssen	-11.4192
azi	-11.4194
▁bröt	-11.4195
▁släkt	-11.4195
▁Maggie	-11.4195
▁classified	-11.4195
▁Prime	-11.4197
▁parallel	-11.4198
▁walked	-11.42
▁highest	-11.4202
▁båt	-11.4203
▁suffered	-11.4205
deemed	-11.4208
▁praxis	-11.4208
▁bilar	-11.4208
▁trä	-11.4209
▁sodium	-11.4214
▁åtgärden	-11.4214
▁Kra	-11.4216
▁fattas	-11.4216
▁Ch	-11.4219
-4-	-11.4223
▁granting	-11.4225
jar	-11.4226
▁Doug	-11.4226
▁beach	-11.4228
▁MARKETING	-11.423
▁continuing	-11.423
▁hinner	-11.423
chen	-11.4231
▁borrow	-11.4231
▁Miles	-11.4235
CI	-11.4236
▁Prodi	-11.4236
▁förändras	-11.4238
nät	-11.4239
▁Sean	-11.424
▁perform	-11.4243
▁loose	-11.4244
▁ob	-11.4245
bla	-11.4246
elli	-11.4249
▁spåra	-11.425
▁strengthening	-11.425
▁pot	-11.4251
▁prova	-11.4252
leg	-11.4256
▁produktionen	-11.4257
▁turns	-11.4257
ENT	-11.4257
▁bestämmelse	-11.4259
▁recital	-11.4261
▁beviljats	-11.4261
▁narkotika	-11.4262
kov	-11.4265
▁Framework	-11.4266
▁apologize	-11.4266
▁behaviour	-11.4266
▁hustru	-11.4267
▁Police	-11.4267
called	-11.4267
▁Must	-11.4268
▁targets	-11.4269
▁Sy	-11.427
▁upphandling	-11.4275
▁dollars	-11.4276
▁110	-11.4277
SE	-11.4278
▁mörda	-11.4279
▁buying	-11.4283
61	-11.4286
nivåer	-11.4286
itu	-11.4286
▁gang	-11.4287
▁ISO	-11.4293
/1999	-11.4293
änk	-11.4294
▁coast	-11.43
▁presidency	-11.4303
▁Gibbs	-11.4303
▁bygg	-11.4304
▁lärare	-11.4304
▁Goodbye	-11.4304
sök	-11.4304
rest	-11.4305
▁pants	-11.4308
sätt	-11.4311
▁fann	-11.4311
▁Str	-11.4312
▁situations	-11.4314
▁filmen	-11.4315
▁pictures	-11.4316
pet	-11.4322
wer	-11.4324
▁Miller	-11.4324
▁bolag	-11.4327
▁försäkrings	-11.4328
▁bal	-11.4329
▁tittade	-11.4333
▁Second	-11.4334
▁titt	-11.4336
▁INFORMATION	-11.4339
▁följaktligen	-11.4339
▁ribavirin	-11.4339
▁pattern	-11.4339
▁THAT	-11.4339
▁Europol	-11.4339
▁enforcement	-11.4339
▁nervös	-11.434
▁satisfied	-11.4342
▁upprättande	-11.4343
▁Ordförande	-11.4349
▁fantastiskt	-11.4349
▁officials	-11.435
▁framföra	-11.435
▁indent	-11.435
ringar	-11.435
ular	-11.4351
ingen	-11.4351
▁hål	-11.4352
▁gränsvärden	-11.4353
▁skador	-11.4354
-0	-11.4357
▁offentliggöras	-11.4359
▁dumt	-11.4359
▁effekten	-11.4364
▁svarade	-11.4367
ake	-11.4368
▁ansiktet	-11.437
rc	-11.4372
▁fallen	-11.4375
▁Tomorrow	-11.4375
▁tobacco	-11.4375
▁asleep	-11.4375
2003,	-11.4375
▁problemen	-11.4375
▁skor	-11.4376
▁leka	-11.4377
kr	-11.4378
tric	-11.4378
▁transitional	-11.4379
▁equality	-11.4379
FI	-11.4383
▁dricker	-11.4384
▁nuts	-11.4391
▁Step	-11.4391
▁beskrivning	-11.4392
▁ski	-11.4395
▁Firstly	-11.4396
TH	-11.4396
lad	-11.4397
67	-11.4398
▁ku	-11.44
ören	-11.4402
burg	-11.4402
▁Lang	-11.4403
gräns	-11.4404
▁avskaffa	-11.4404
ljus	-11.4408
▁lett	-11.4408
▁Win	-11.4409
▁passenger	-11.4409
▁Shi	-11.4409
▁shared	-11.4411
▁Summit	-11.4412
▁concrete	-11.4412
▁Always	-11.4412
▁Omröstning	-11.4412
▁pointed	-11.4412
▁Jamie	-11.4412
▁breakfast	-11.4412
▁föll	-11.4414
▁tacksam	-11.4414
känd	-11.4414
▁percent	-11.4416
▁Förvara	-11.4417
▁samples	-11.4419
▁verkade	-11.4422
▁elektroniska	-11.4428
▁krafter	-11.4429
▁skadad	-11.4429
▁sanning	-11.4429
▁Beth	-11.4434
▁sy	-11.4435
▁stånd	-11.4436
▁tanken	-11.4437
▁kommentarer	-11.4439
▁Bri	-11.4439
nal	-11.444
▁Kal	-11.4441
▁Dean	-11.4444
▁processes	-11.4444
▁cast	-11.4444
▁reducera	-11.4445
ida	-11.4446
▁Lin	-11.4448
▁journey	-11.4448
▁UNION	-11.4448
▁vaccination	-11.445
▁kompletterande	-11.445
▁familjer	-11.4451
▁jämförelse	-11.4454
▁AD	-11.4455
▁kryp	-11.4455
▁Commander	-11.446
▁tydliga	-11.4464
76	-11.4464
53	-11.4465
ked	-11.4466
fattning	-11.4466
▁spoken	-11.4468
▁ting	-11.4471
like	-11.4471
▁svag	-11.4471
▁lögn	-11.4473
▁verksamheter	-11.4475
▁mechanisms	-11.4483
▁Stan	-11.4484
▁technologies	-11.4485
▁threshold	-11.4485
▁residence	-11.4485
▁Secretary	-11.4485
▁repair	-11.4485
▁Gordon	-11.4485
▁rough	-11.4486
▁Antal	-11.4487
▁speciell	-11.4487
▁samarbets	-11.4489
▁förbud	-11.449
▁investerings	-11.4493
▁underbart	-11.4496
kväll	-11.4497
▁Given	-11.45
▁beslutat	-11.4501
▁Ak	-11.4503
▁principerna	-11.4504
▁beslutade	-11.4504
▁hjärt	-11.4507
▁allmänhet	-11.4507
uh	-11.4509
▁utfärda	-11.4511
▁Clear	-11.4512
▁landets	-11.4513
▁papers	-11.4516
▁Dude	-11.452
▁cow	-11.452
lopp	-11.452
▁EXP	-11.4521
ämnen	-11.4521
▁Ban	-11.4522
▁achieving	-11.4522
▁flexibility	-11.4522
▁instämmer	-11.4522
▁Snart	-11.4522
▁tusentals	-11.4522
▁definieras	-11.4522
▁Stäng	-11.4523
▁federal	-11.4525
hög	-11.4526
▁interferon	-11.4528
▁terminal	-11.4528
▁Annie	-11.4529
▁fördelar	-11.4529
▁learning	-11.4531
▁user	-11.4531
▁manufacture	-11.4534
(6)	-11.4535
gue	-11.4535
▁honour	-11.4536
▁dumma	-11.4538
nä	-11.454
▁skyldighet	-11.454
▁adopting	-11.4541
▁AG	-11.4542
▁PPE	-11.4542
▁lura	-11.4546
ito	-11.4548
▁dagarna	-11.4549
ami	-11.4552
▁orsak	-11.4554
▁Zo	-11.4554
▁ljuset	-11.4558
▁ceiling	-11.4559
▁engagemang	-11.4559
▁förmodligen	-11.4559
▁självklart	-11.4559
▁Hannah	-11.4559
▁boken	-11.456
▁effectiveness	-11.4561
▁CPA	-11.4566
▁moder	-11.4567
▁undertaken	-11.4568
▁upphör	-11.4569
qu	-11.4576
uld	-11.4577
▁egendom	-11.4579
▁integrera	-11.458
▁mått	-11.4581
IE	-11.4581
▁structures	-11.4582
▁områdena	-11.4582
▁respektera	-11.4584
visa	-11.4585
▁supplement	-11.4587
▁digital	-11.4588
rich	-11.4589
LA	-11.459
▁Objective	-11.4596
▁cheap	-11.4596
▁thou	-11.4597
nie	-11.4597
▁tydligen	-11.4597
Ro	-11.4599
lett	-11.46
▁unge	-11.46
▁Palestinian	-11.4601
▁Barry	-11.4601
bon	-11.4601
▁idéer	-11.4601
arnas	-11.4602
▁fattigdom	-11.4604
bed	-11.4604
az	-11.461
▁minskar	-11.4612
▁detalj	-11.4613
▁decrease	-11.4617
place	-11.4617
▁replace	-11.4617
▁klä	-11.4617
tioner	-11.4618
▁minnas	-11.4618
CA	-11.4622
▁vila	-11.4625
▁ärade	-11.4626
ison	-11.4626
vig	-11.4628
▁Ukraina	-11.4633
▁comprehensive	-11.4633
▁klarade	-11.4635
▁Blue	-11.4638
verse	-11.4643
▁garanti	-11.4648
tiga	-11.4649
▁träd	-11.4651
▁klargöra	-11.4655
▁fylla	-11.4655
boy	-11.4655
▁jobbade	-11.4664
zz	-11.4664
▁Börja	-11.4671
▁humanitarian	-11.4671
▁Joseph	-11.4671
▁Jordan	-11.4674
kade	-11.4676
2012	-11.4677
54	-11.4678
▁quarter	-11.4678
▁Point	-11.4682
nia	-11.4685
▁samla	-11.4692
▁considering	-11.4694
▁kniv	-11.4695
▁sta	-11.4703
▁awful	-11.4703
station	-11.4706
ks	-11.4707
följande	-11.4708
▁kuk	-11.4708
▁concentrations	-11.4708
▁interrupt	-11.4708
▁knife	-11.4708
▁praktiken	-11.4708
▁ridiculous	-11.4708
▁photograph	-11.4709
▁Fisheries	-11.4709
▁emission	-11.4709
▁Charter	-11.471
▁permission	-11.471
▁AN	-11.4711
▁299	-11.4711
gener	-11.4711
hop	-11.4712
▁betalnings	-11.4712
▁Mass	-11.4716
with	-11.4718
▁grade	-11.4719
ulation	-11.4721
▁ansvarar	-11.4723
▁beer	-11.4725
▁luften	-11.4726
cia	-11.4727
kos	-11.4728
▁cards	-11.4728
▁loud	-11.4728
wo	-11.4732
▁diskuterar	-11.4735
▁förhör	-11.4737
▁fleet	-11.4737
▁röd	-11.474
▁allowing	-11.4741
▁subjects	-11.4742
smedel	-11.4743
▁Hy	-11.4743
▁presidenten	-11.4743
▁externa	-11.4746
▁eftermiddag	-11.4746
▁shadow	-11.4746
▁åstadkomma	-11.4746
▁multiple	-11.4746
▁Julia	-11.4747
kommer	-11.4749
▁unfortunately	-11.4749
▁screen	-11.475
▁component	-11.475
▁taught	-11.475
fär	-11.4751
bli	-11.4754
▁döds	-11.4754
▁röda	-11.4754
2006,	-11.4755
▁sekund	-11.4756
▁customers	-11.4757
former	-11.4757
▁Känn	-11.4757
▁Carrie	-11.476
▁Javisst	-11.4762
▁arbetsordningen	-11.4762
TION	-11.4764
▁bröder	-11.4765
▁fångar	-11.4767
▁inverkan	-11.4768
tiskt	-11.4768
▁verkligheten	-11.4769
62	-11.477
▁fonden	-11.4771
vå	-11.4773
▁disappear	-11.4774
God	-11.4774
▁avgift	-11.4774
▁Wo	-11.4775
märke	-11.4776
▁hårda	-11.4776
▁Hill	-11.4777
ati	-11.4781
▁Old	-11.4782
zy	-11.4783
bolag	-11.4784
▁förflutna	-11.4784
▁cousin	-11.4784
▁2.1	-11.4785
▁List	-11.4785
▁Mommy	-11.4785
▁patienten	-11.4787
▁cereals	-11.4789
smyndigheten	-11.4789
▁returned	-11.4791
▁beteende	-11.4792
sur	-11.4792
▁upphävande	-11.4793
▁hänga	-11.4794
▁allows	-11.48
statliga	-11.4802
▁measured	-11.4802
▁concentrate	-11.4805
▁längd	-11.4807
▁förr	-11.4808
▁Bland	-11.4809
▁gap	-11.481
ists	-11.4812
▁utvidga	-11.4813
▁telefonen	-11.4814
▁AL	-11.4815
UN	-11.4817
▁Dick	-11.4818
kat	-11.4819
▁knowing	-11.4821
▁Texas	-11.4822
▁noggrant	-11.4822
▁EIB	-11.4822
▁inrikes	-11.4822
▁knark	-11.4822
▁lägg	-11.4823
▁trafficking	-11.4823
▁devices	-11.4826
▁sweetie	-11.4826
rra	-11.4827
bud	-11.4828
▁studera	-11.483
▁medvetna	-11.4831
ethyl	-11.4832
▁processed	-11.4832
coated	-11.4833
▁femte	-11.4835
▁Förordning	-11.4836
▁skjuts	-11.4836
▁Play	-11.4838
▁immun	-11.4842
▁fokusera	-11.4842
artikel	-11.4844
▁skyddet	-11.4853
ket	-11.4854
▁rättegång	-11.4854
grad	-11.4854
▁92/	-11.4856
▁Fu	-11.4859
▁letters	-11.486
▁oerhört	-11.486
▁throat	-11.486
▁Syfte	-11.486
▁forgotten	-11.4862
65/	-11.4862
liggande	-11.4862
▁inkomst	-11.4862
▁appointed	-11.4864
▁moon	-11.4866
▁alert	-11.4866
▁patienterna	-11.4868
▁harmonisering	-11.4869
▁sköta	-11.487
▁birds	-11.4871
én	-11.4872
▁förbindelserna	-11.4872
▁fader	-11.4877
▁aspect	-11.488
▁juridiska	-11.4881
▁reser	-11.4883
▁soldater	-11.4883
▁gross	-11.4885
▁recall	-11.4889
▁shock	-11.4889
elle	-11.489
ssel	-11.4894
▁liquid	-11.4898
▁garage	-11.4899
▁Cho	-11.4901
▁netto	-11.4902
▁sal	-11.4908
vinn	-11.4908
enda	-11.491
▁Gil	-11.4912
▁Pri	-11.4914
▁riskera	-11.4915
▁regeringar	-11.4915
▁93/	-11.4916
other	-11.4917
▁soldiers	-11.4917
▁förbli	-11.4919
▁communicate	-11.492
ime	-11.4921
förhållanden	-11.4926
▁utnyttjande	-11.4927
▁grown	-11.4927
▁ratio	-11.493
▁wave	-11.4931
▁rapid	-11.4933
mannen	-11.4933
▁doors	-11.4935
▁depends	-11.4936
▁enormous	-11.4937
▁selection	-11.4939
▁passengers	-11.494
sig	-11.494
▁Congratulations	-11.494
▁sheriff	-11.4942
oner	-11.4944
▁indication	-11.4945
▁bryter	-11.4945
▁airport	-11.4946
▁shower	-11.4946
dge	-11.4948
▁Nord	-11.4949
▁hållit	-11.495
▁SO	-11.4953
▁2013.	-11.4955
COM	-11.4956
▁Tyst	-11.4957
▁anmälan	-11.496
▁formula	-11.4963
war	-11.4964
▁flyttar	-11.4965
▁highlight	-11.4968
▁använts	-11.4968
snivå	-11.4971
▁award	-11.4971
▁möten	-11.4973
▁spending	-11.4974
▁cheese	-11.4976
▁resident	-11.4976
▁impression	-11.4976
▁frys	-11.4979
▁Josh	-11.4979
▁Robin	-11.498
▁Nya	-11.498
▁Port	-11.4981
▁mix	-11.4983
tionen	-11.4987
▁plastic	-11.4987
lim	-11.4988
▁strider	-11.4988
▁avslöja	-11.4988
para	-11.499
▁gräs	-11.4991
▁inclusion	-11.4992
▁Ever	-11.4992
▁läste	-11.4993
▁ledning	-11.4996
▁leverera	-11.5001
▁Jay	-11.5002
ION	-11.5004
▁utmärkta	-11.5004
▁publish	-11.5005
effekt	-11.5006
▁subsequent	-11.5009
▁fulla	-11.501
▁akt	-11.5011
ency	-11.5013
▁Cooper	-11.5014
▁åsikter	-11.5014
▁Lithuania	-11.5014
▁Taylor	-11.5014
▁clause	-11.5014
▁frozen	-11.5014
▁sweetheart	-11.5014
▁honourable	-11.5016
▁interpretation	-11.5016
▁Sol	-11.5017
▁nowhere	-11.502
▁Johnson	-11.5021
▁deleted	-11.5021
▁Morning	-11.5021
▁MI	-11.5022
▁Lock	-11.5024
▁Box	-11.5024
izing	-11.5028
nom	-11.5028
▁preliminära	-11.5032
▁fågel	-11.5036
▁emphasise	-11.5038
▁faktor	-11.5039
▁str	-11.504
OS	-11.5041
kol	-11.5043
Hey	-11.5045
▁viktigare	-11.5048
▁assure	-11.5049
eck	-11.5053
▁circle	-11.5053
▁Skriv	-11.5053
▁instructions	-11.5054
▁utöka	-11.5055
▁befria	-11.5058
▁lösningen	-11.5061
ying	-11.5063
▁previously	-11.5068
▁medborgarnas	-11.5069
ties	-11.5069
▁fundera	-11.5072
beta	-11.5073
▁textil	-11.5073
▁ordnar	-11.5076
▁redovisning	-11.5079
▁Gary	-11.508
▁internationellt	-11.5083
phy	-11.5085
▁ladda	-11.5086
▁genuine	-11.5089
▁forum	-11.5089
▁SP	-11.5089
ställt	-11.509
SP	-11.5092
▁hanging	-11.5093
▁höja	-11.5093
▁kusin	-11.5093
▁edge	-11.5095
2001,	-11.5099
▁överväga	-11.5099
▁lust	-11.5099
▁civilian	-11.51
▁vitt	-11.5101
▁adapt	-11.5102
▁assessed	-11.5104
▁konkret	-11.5105
▁affairs	-11.5105
örer	-11.5106
▁aktivt	-11.5107
▁punkten	-11.5107
▁square	-11.5107
▁arise	-11.5109
face	-11.5109
▁Standing	-11.5111
▁fields	-11.5113
vänd	-11.5114
analys	-11.5115
åk	-11.5118
▁pieces	-11.5119
▁functions	-11.512
▁individuals	-11.5122
▁offering	-11.5124
▁skyddar	-11.5124
▁rättvis	-11.5125
mos	-11.5127
▁DECISION	-11.5132
▁primarily	-11.5132
▁supplies	-11.5132
strukturfonderna	-11.5132
▁pizza	-11.5132
▁rika	-11.5132
▁tissue	-11.5132
▁football	-11.5132
▁infringement	-11.5133
nan	-11.5134
mid	-11.5134
▁BSE	-11.5135
rätten	-11.5135
▁ST	-11.5135
▁Gal	-11.5135
▁kust	-11.5138
▁Ari	-11.5141
▁mixed	-11.5141
For	-11.5143
▁tider	-11.5144
▁bilden	-11.5144
▁Balkan	-11.5145
▁klassificering	-11.5147
▁stadga	-11.5148
▁gäng	-11.5149
▁trygghet	-11.5151
belopp	-11.5152
▁grejer	-11.5153
▁Hitta	-11.5153
▁IX	-11.5154
▁vadå	-11.5155
▁satellite	-11.5158
82	-11.5161
▁kvinnorna	-11.5161
▁Cu	-11.5162
▁excessive	-11.5166
VE	-11.5168
▁utmaningar	-11.5171
▁impairment	-11.5171
▁beträffar	-11.5171
▁Monday	-11.5171
▁domare	-11.5171
▁alright	-11.5172
trä	-11.5172
relaterade	-11.5173
▁eu	-11.5173
▁fasta	-11.5174
▁andas	-11.5174
▁unions	-11.518
fan	-11.518
▁kompetens	-11.5181
handel	-11.5181
slagen	-11.5181
ique	-11.5183
▁nearly	-11.5184
▁registrerade	-11.5185
▁neutral	-11.5187
änsöverskridande	-11.5187
hol	-11.5188
▁hänvisa	-11.5189
▁Akta	-11.5191
text	-11.5192
▁Char	-11.5195
andra	-11.5195
▁bred	-11.5196
▁outta	-11.5197
▁lamp	-11.5199
▁försvars	-11.52
▁smör	-11.5201
▁användare	-11.5201
▁ideal	-11.5206
▁minne	-11.5208
▁Ombudsman	-11.521
▁colour	-11.521
▁comparison	-11.5211
▁Madrid	-11.5211
▁bredvid	-11.5211
kräm	-11.5211
▁personnel	-11.5212
▁Mad	-11.5212
AG	-11.5212
some	-11.5213
MS	-11.5213
cen	-11.5216
▁input	-11.5216
fest	-11.5217
▁marknader	-11.5218
▁disk	-11.5218
▁pipe	-11.5219
▁increasingly	-11.5221
SH	-11.5222
▁uppskatta	-11.5223
▁förväntas	-11.5224
fs	-11.5225
▁claimed	-11.5229
▁månaden	-11.523
▁förvaltningen	-11.5231
▁gentleman	-11.5232
▁attend	-11.5234
▁troll	-11.5234
▁saving	-11.5235
▁breathe	-11.5237
▁ingående	-11.5239
▁halt	-11.524
▁sökanden	-11.524
▁Eva	-11.5241
cl	-11.5243
7)	-11.5244
stid	-11.5244
2010	-11.5245
even	-11.5248
▁ön	-11.5248
▁gällde	-11.525
▁McGee	-11.525
▁technological	-11.5251
▁gömma	-11.5251
▁erkänner	-11.5251
▁närvaro	-11.5251
▁djuren	-11.5252
▁withdrawal	-11.5253
NG	-11.5256
▁marked	-11.5258
mun	-11.5262
▁disaster	-11.5264
▁testa	-11.5269
▁görs	-11.527
rätta	-11.5271
SI	-11.5271
gått	-11.5273
▁recognize	-11.5273
▁effekterna	-11.5276
▁Stu	-11.5276
▁skyldiga	-11.5277
▁(7)	-11.5277
▁bilda	-11.5279
▁recommend	-11.5279
▁fäst	-11.5281
▁nått	-11.5281
▁investera	-11.5282
▁spell	-11.5285
tagna	-11.5287
▁Atlantic	-11.529
▁godta	-11.5291
▁Market	-11.5291
▁Tid	-11.5291
Li	-11.5293
▁alien	-11.5294
▁tvekan	-11.5296
2005,	-11.5296
sik	-11.5297
▁Santa	-11.53
▁märke	-11.53
▁reserve	-11.5302
try	-11.5303
▁Jackie	-11.5305
▁Marty	-11.5307
▁orden	-11.5308
▁spin	-11.531
▁liberal	-11.5311
▁Had	-11.5312
▁spr	-11.5317
▁Frågan	-11.5319
iteten	-11.5321
▁Angel	-11.5322
town	-11.5324
▁Insulin	-11.5327
▁awesome	-11.533
▁restaurant	-11.533
▁ritonavir	-11.533
▁premium	-11.533
▁Gabriel	-11.533
▁José	-11.533
▁packaging	-11.533
▁motstånd	-11.533
▁Derek	-11.5331
▁railway	-11.5331
▁slipper	-11.5331
▁nurse	-11.5331
▁speciella	-11.5331
▁garden	-11.5331
▁Cooperation	-11.5332
resa	-11.5334
▁jakt	-11.5344
osa	-11.5345
Mar	-11.5347
▁utsäde	-11.5347
Ch	-11.5347
stone	-11.5347
▁desk	-11.5349
▁Br	-11.5352
▁surely	-11.5353
cation	-11.5354
▁Patients	-11.5356
mässiga	-11.5356
▁himlen	-11.5356
▁WE	-11.5358
▁skillnader	-11.5359
▁rating	-11.5361
data	-11.5366
▁detsamma	-11.5367
▁sjukvård	-11.5368
▁Ukraine	-11.537
▁foodstuffs	-11.537
▁surgery	-11.537
▁Federal	-11.537
▁sålde	-11.5371
▁Export	-11.5371
▁övertygad	-11.5372
▁mineral	-11.5373
▁firms	-11.5374
▁Behandling	-11.5374
▁koll	-11.5375
▁125	-11.5378
▁människors	-11.5381
▁rådsordförande	-11.5383
▁betalade	-11.5386
▁crying	-11.5389
▁fiskeri	-11.5391
▁landsbygden	-11.5393
▁kammare	-11.5393
▁angel	-11.5395
▁communications	-11.5397
mate	-11.5399
▁coat	-11.5405
ama	-11.5407
▁Aw	-11.5408
▁insyn	-11.5409
▁Strategy	-11.5411
▁haemoglobin	-11.5411
▁participating	-11.5411
▁comfortable	-11.5411
▁wage	-11.5414
▁pl	-11.5416
▁Cool	-11.5419
▁parent	-11.5421
▁Fram	-11.5421
▁2005/	-11.5422
▁skillnaden	-11.5423
pic	-11.5423
givande	-11.5423
6-	-11.5424
▁designation	-11.5425
▁citizen	-11.5428
▁taxes	-11.5429
▁guaranteed	-11.543
▁wise	-11.5431
▁framställning	-11.5431
▁1:	-11.5434
▁Dam	-11.5435
▁spp	-11.5436
ith	-11.5437
▁Patienter	-11.544
5%	-11.5441
▁krigs	-11.5442
inne	-11.5442
möte	-11.5442
▁städa	-11.5447
▁stronger	-11.545
▁Barcelona	-11.5451
▁Ledamot	-11.5451
▁NUMBER	-11.5451
▁flexibilitet	-11.5451
▁kolumn	-11.5451
▁frukost	-11.5451
▁letting	-11.5453
EM	-11.5453
▁Bruce	-11.5453
▁seeking	-11.5453
▁Norge	-11.5453
▁skiljer	-11.5458
▁beräkning	-11.5459
▁Casey	-11.546
▁betalningar	-11.5461
speriod	-11.5462
▁tilläggs	-11.5463
tine	-11.5464
▁godkännas	-11.5465
INN	-11.5466
▁expecting	-11.5468
▁represented	-11.5474
▁arrested	-11.5474
▁impose	-11.5475
fria	-11.5477
▁charm	-11.5478
sbygdsutveckling	-11.548
▁stil	-11.548
iker	-11.5481
▁Hank	-11.5484
När	-11.5484
▁checking	-11.5485
▁PHP	-11.5492
▁doktor	-11.5492
▁fredag	-11.5493
ror	-11.5493
▁hardly	-11.5496
▁karriär	-11.5498
▁kyrkan	-11.5499
▁denne	-11.5499
▁Glad	-11.5504
▁konsumenter	-11.5506
▁Oral	-11.5506
▁Mår	-11.5507
samt	-11.5508
CS	-11.5509
▁förkasta	-11.551
▁överföra	-11.5512
▁Går	-11.5513
▁dörr	-11.5514
▁sko	-11.5515
▁brings	-11.5515
▁pröva	-11.5515
bis	-11.5516
▁Donna	-11.5518
tiden	-11.5518
▁lands	-11.5521
▁east	-11.5522
▁passing	-11.5524
ytt	-11.553
dition	-11.553
ske	-11.553
▁Pr	-11.5532
▁Flytta	-11.5533
▁chapter	-11.5533
▁submission	-11.5533
read	-11.5534
▁tyder	-11.5534
▁involvement	-11.5534
▁gratis	-11.5534
▁glädje	-11.5534
▁kommissionären	-11.5537
inal	-11.554
▁ended	-11.5541
▁utfärdande	-11.5551
1995	-11.5552
▁4.3	-11.5552
lagstiftning	-11.5553
▁genomförts	-11.5555
▁gall	-11.5555
▁helvetet	-11.5556
▁Mill	-11.5556
▁utförs	-11.5558
ically	-11.5559
▁Lö	-11.556
▁glo	-11.5562
▁exists	-11.5562
▁analysera	-11.5565
▁tools	-11.5565
enheter	-11.5567
▁Åter	-11.5567
bie	-11.5569
▁requests	-11.5572
▁Chicago	-11.5573
▁ocean	-11.5573
▁Subject	-11.5574
▁Jessica	-11.5574
▁Eastern	-11.5574
▁självmord	-11.5574
▁bilagorna	-11.5575
▁Tabell	-11.5575
▁egg	-11.5577
▁Clay	-11.5578
ement	-11.5583
▁längs	-11.5584
▁weather	-11.5584
sto	-11.5585
vård	-11.5586
▁springa	-11.5586
▁snö	-11.5587
▁fönstret	-11.5589
▁Pla	-11.5589
▁pulver	-11.5592
▁förblir	-11.5593
▁heaven	-11.5594
▁vapnet	-11.5598
▁et	-11.5601
▁Pol	-11.5602
▁tillämpar	-11.5602
▁Dig	-11.5603
2001	-11.5604
UM	-11.5604
sförfarande	-11.5605
▁DO	-11.5606
▁causes	-11.5608
▁förbereda	-11.561
ttle	-11.5611
▁students	-11.5612
▁license	-11.5613
▁förvandla	-11.5615
▁subsidies	-11.5615
▁Easy	-11.5615
▁givetvis	-11.5615
▁thereby	-11.5615
▁Patrick	-11.5615
▁rational	-11.5615
▁1989	-11.5616
▁awareness	-11.5617
inte	-11.5617
▁gender	-11.562
▁prick	-11.5621
▁frun	-11.5624
lämna	-11.5627
▁losses	-11.5629
▁vågar	-11.5629
▁Stå	-11.563
▁förvalta	-11.5633
▁avsett	-11.5636
▁89	-11.5636
▁Customs	-11.5637
▁soldier	-11.5637
tals	-11.5639
▁uppdatera	-11.5644
▁crash	-11.5646
▁ver	-11.5648
park	-11.5649
villkor	-11.5651
▁Dag	-11.5651
▁increases	-11.5653
lån	-11.5654
▁supplied	-11.5656
▁ihjäl	-11.5656
▁Guess	-11.5656
▁Contract	-11.5656
olja	-11.5656
▁sanktioner	-11.5657
▁exposed	-11.5661
▁kall	-11.5661
east	-11.5664
▁repealed	-11.5664
▁dumb	-11.5665
▁core	-11.5666
▁Rock	-11.5667
Why	-11.5673
▁anfall	-11.5675
NI	-11.5675
▁NB	-11.5675
▁2000,	-11.5676
▁antagandet	-11.5677
nov	-11.5679
▁kommun	-11.568
▁regionerna	-11.5683
▁Wall	-11.5684
rix	-11.5685
▁paket	-11.5687
▁arv	-11.5691
grip	-11.5692
bru	-11.5693
▁AUC	-11.5693
▁RÅD	-11.5697
▁Communication	-11.5697
▁Elizabeth	-11.5697
▁Company	-11.5697
▁Democrats	-11.5698
▁Bridge	-11.5699
▁respective	-11.57
▁utföras	-11.5702
▁Vegas	-11.5702
pot	-11.5703
▁taxation	-11.5705
▁whenever	-11.5705
▁uttryckligen	-11.5705
▁brothers	-11.5708
▁massor	-11.5708
Don	-11.571
74	-11.571
▁insåg	-11.5711
▁kvantitet	-11.5711
▁kamp	-11.5714
▁Wolf	-11.5716
▁hundar	-11.5716
ställda	-11.5717
▁spare	-11.572
▁gal	-11.5725
flu	-11.5725
▁personliga	-11.5725
▁kända	-11.5728
▁juice	-11.5728
▁missbruk	-11.5728
mble	-11.5732
aire	-11.5733
▁begränsas	-11.5738
▁Slovenia	-11.5739
▁sannolikt	-11.5739
▁tillåtna	-11.5739
hold	-11.5741
▁broder	-11.5741
▁exact	-11.5742
▁flowers	-11.5742
▁Molly	-11.5743
▁HE	-11.5744
▁Year	-11.5746
▁galna	-11.5746
▁inse	-11.5748
▁förstärka	-11.5749
▁estimated	-11.5749
▁spridning	-11.575
▁registrera	-11.575
▁elected	-11.5752
66	-11.5754
▁Bureau	-11.5755
▁blodet	-11.5756
politiska	-11.5761
bba	-11.5762
▁situationer	-11.5764
▁MA	-11.5765
▁specify	-11.5766
▁aktivitet	-11.5766
▁artiklar	-11.5767
hän	-11.5769
bord	-11.5771
▁sheet	-11.5771
▁streets	-11.5776
made	-11.5777
▁däribland	-11.5781
▁survey	-11.5781
▁skola	-11.5781
▁Rural	-11.5781
▁Regionkommittén	-11.5782
▁jättebra	-11.5782
▁inserted	-11.5782
stick	-11.5782
▁prisoners	-11.5782
yck	-11.5783
▁Night	-11.5783
All	-11.5786
▁mera	-11.5787
▁coach	-11.5788
▁Vidare	-11.5791
▁kvalitets	-11.5795
▁Latin	-11.5799
▁industrin	-11.58
▁directives	-11.58
halt	-11.5803
▁aside	-11.5804
▁[3].	-11.5804
▁exemption	-11.5806
▁cure	-11.5807
▁pretend	-11.5808
▁112	-11.5816
▁brave	-11.5816
▁Third	-11.5818
mont	-11.5819
▁stands	-11.582
▁komplettera	-11.5822
▁Nathan	-11.5823
▁förlängning	-11.5823
▁Litauen	-11.5823
▁MEDICIN	-11.5823
▁Nevertheless	-11.5823
▁trigger	-11.5823
▁universal	-11.5823
▁false	-11.5823
▁160	-11.5823
▁gäst	-11.5824
▁barely	-11.5825
▁fattat	-11.5826
värd	-11.5828
▁sensor	-11.5829
▁Unit	-11.5832
▁utvecklade	-11.5832
▁skojar	-11.5833
▁96/	-11.5835
▁förstod	-11.5835
huvud	-11.5837
▁Close	-11.5843
▁gul	-11.5843
▁continues	-11.5843
▁horn	-11.5845
▁800	-11.5846
▁Socialist	-11.5849
▁maskin	-11.5849
▁experter	-11.5851
tie	-11.5852
▁shame	-11.5853
▁marks	-11.5854
▁anläggning	-11.5854
▁Leon	-11.5856
▁vänder	-11.5856
▁realise	-11.586
transport	-11.5861
▁Leonard	-11.5861
▁regarded	-11.5862
▁sinne	-11.5865
▁Portuguese	-11.5865
▁pharmacist	-11.5865
▁suicide	-11.5865
▁Sunday	-11.5865
▁kopia	-11.5866
▁mild	-11.5867
▁breaking	-11.5867
folk	-11.5867
▁retail	-11.5867
▁plikt	-11.5867
▁98/	-11.5867
▁BY	-11.5868
state	-11.587
▁styra	-11.5873
▁hamn	-11.5873
▁engines	-11.5873
▁genetiskt	-11.5875
▁balanced	-11.5879
▁5.3	-11.588
▁enorma	-11.5881
▁passa	-11.5883
▁bin	-11.5884
▁cook	-11.5884
▁vikten	-11.5884
▁skulder	-11.5885
▁bön	-11.5886
▁syftet	-11.5889
9)	-11.589
▁approve	-11.5891
nivån	-11.5891
7-	-11.5892
splanen	-11.5893
▁6.1	-11.5895
föra	-11.5897
▁fira	-11.5897
ån	-11.5898
▁droger	-11.5901
agent	-11.5902
Va	-11.5904
▁Hä	-11.5905
genomsnittliga	-11.5906
▁stomach	-11.5908
▁famous	-11.5908
▁Slovakien	-11.5908
▁interaction	-11.5908
▁zero	-11.5908
▁muscle	-11.5908
▁random	-11.5908
▁flash	-11.5908
▁passport	-11.5909
▁insane	-11.591
▁settlement	-11.591
▁prescribed	-11.5911
▁dras	-11.5913
gjort	-11.5914
▁Aid	-11.5914
▁collected	-11.5915
▁index	-11.5916
Pa	-11.5917
sent	-11.5919
▁balls	-11.592
▁Liv	-11.5921
▁MED	-11.5921
▁teacher	-11.5922
nos	-11.5923
▁sysselsättnings	-11.5925
sförslag	-11.5928
▁Brand	-11.5929
▁främsta	-11.5929
▁låga	-11.593
▁vakna	-11.5931
▁Wil	-11.5933
▁cake	-11.5936
▁upprätthålla	-11.5936
▁minor	-11.5939
▁Zi	-11.5939
regler	-11.594
▁normer	-11.5941
▁skriv	-11.5941
▁lås	-11.5941
▁ordered	-11.5942
▁ME	-11.5943
ught	-11.5944
▁erfarenheter	-11.5945
▁järnvägs	-11.5947
▁strip	-11.5947
▁Seriously	-11.595
▁SÄRSKILD	-11.595
▁anbudsinfordran	-11.595
▁century	-11.595
▁expiry	-11.595
▁website	-11.595
▁Otherwise	-11.595
▁liability	-11.595
▁Serbia	-11.5951
▁Super	-11.5951
"...	-11.5952
▁Stra	-11.5952
▁morgonen	-11.5953
▁garanterar	-11.5954
nel	-11.5957
▁förvänta	-11.5958
▁räknar	-11.5958
▁dumped	-11.596
▁Light	-11.596
flo	-11.596
▁settle	-11.5962
▁tokig	-11.5964
▁vägra	-11.5967
▁Pull	-11.5969
god	-11.5972
▁LA	-11.5975
▁rear	-11.5978
kning	-11.5978
▁doin	-11.5981
blad	-11.5981
▁5.1	-11.5982
▁Arm	-11.5982
▁noll	-11.5984
sländerna	-11.5987
▁constant	-11.5988
▁mal	-11.5989
▁röstar	-11.5991
▁commit	-11.5992
▁invest	-11.5992
tterligare	-11.5992
▁Auditors	-11.5993
▁horrible	-11.5993
▁becomes	-11.5993
▁Gemensamma	-11.5993
▁återstår	-11.5993
▁collective	-11.5993
▁Fattar	-11.5993
taget	-11.5996
▁golvet	-11.5997
året	-11.5998
heim	-11.6002
▁skälen	-11.6005
rarna	-11.6006
▁ytterst	-11.6008
bruk	-11.6015
▁vind	-11.6016
▁godkänt	-11.6023
tyr	-11.6023
▁Ham	-11.6024
▁ambition	-11.6026
▁automatiskt	-11.6027
▁räknas	-11.6029
mäl	-11.603
▁begärt	-11.6032
▁asyl	-11.6033
▁Winthrop	-11.6036
▁bovine	-11.6036
▁föreligger	-11.6036
▁opposite	-11.6036
▁variable	-11.6036
▁varorna	-11.604
▁wheel	-11.604
▁tidpunkten	-11.6041
▁devil	-11.6041
▁soldat	-11.6042
▁constitutional	-11.6042
▁scenario	-11.6043
▁excluded	-11.6045
låtit	-11.6046
▁ärlig	-11.6048
▁Pack	-11.605
▁bekämpning	-11.6053
▁genomför	-11.6053
▁spill	-11.6054
▁Same	-11.6055
▁7,	-11.6055
▁mottagit	-11.6061
▁facts	-11.6062
▁Ministers	-11.6063
svar	-11.6063
tive	-11.6068
▁Chan	-11.607
▁röster	-11.6072
late	-11.6079
▁facility	-11.6079
▁sto	-11.6079
▁begravning	-11.6079
▁Brother	-11.6079
▁permitted	-11.608
▁reaktioner	-11.608
▁rice	-11.6081
▁officiellt	-11.6082
▁öron	-11.6086
fire	-11.6086
▁frisk	-11.6087
500	-11.6088
▁överför	-11.6088
hjälp	-11.6089
▁connect	-11.6091
Pro	-11.6092
▁Plus	-11.6094
▁3.2	-11.6098
iken	-11.6102
▁kontoret	-11.6102
sko	-11.6104
samling	-11.6105
dags	-11.6105
▁erhålla	-11.6107
normer	-11.6108
▁leads	-11.6109
▁Grant	-11.6109
date	-11.611
▁interim	-11.6111
▁Comb	-11.6112
▁Bayer	-11.6112
▁avvisa	-11.6113
sub	-11.6114
▁kunder	-11.6115
▁(19	-11.6115
▁2.2	-11.6117
▁wing	-11.6118
▁leaders	-11.6119
▁Camp	-11.612
▁rightly	-11.6121
▁ambitious	-11.6122
▁Latvia	-11.6122
▁munnen	-11.6123
▁programmen	-11.6127
▁suddenly	-11.6127
▁explosion	-11.6127
▁konvention	-11.6129
▁Ag	-11.613
▁fate	-11.6131
▁Sid	-11.6131
▁player	-11.6131
▁Sun	-11.6133
▁mountain	-11.6135
▁kulturella	-11.6135
▁achievement	-11.6137
▁finansieringen	-11.6138
▁mät	-11.6141
▁1.3.1	-11.6143
period	-11.6144
▁ömsesidigt	-11.6147
▁komponenter	-11.6148
una	-11.6148
▁goin	-11.6149
▁Hot	-11.6155
längd	-11.6155
▁finansieras	-11.616
▁explained	-11.6161
▁fattiga	-11.6162
▁sanctions	-11.6162
▁Pick	-11.6163
▁AT	-11.6163
▁headed	-11.6165
▁courage	-11.6165
SKA	-11.6166
▁calendar	-11.6166
▁Croatia	-11.6166
▁queen	-11.6167
ancy	-11.6171
star	-11.6172
▁siffror	-11.6175
vision	-11.6176
▁fängelset	-11.6179
fru	-11.6179
igh	-11.6181
▁Eu	-11.6181
▁pie	-11.6182
▁blister	-11.6184
▁diskussioner	-11.6185
▁juridisk	-11.6185
▁strongly	-11.6189
▁Regions	-11.619
▁scen	-11.6192
stod	-11.6194
▁professor	-11.6195
▁tvingade	-11.6196
/2001	-11.6198
▁lights	-11.6198
▁symptom	-11.6199
▁poison	-11.62
▁Radio	-11.6201
▁quote	-11.6205
rri	-11.6205
▁tvingas	-11.6206
▁tillräckliga	-11.6207
▁känsliga	-11.6207
▁Kommittén	-11.6209
▁arbetstagarna	-11.6209
▁circulation	-11.6209
▁excited	-11.6209
▁harmonisation	-11.6209
▁sharp	-11.6209
▁fe	-11.6211
▁lider	-11.6213
▁Gas	-11.6213
▁lägsta	-11.6214
▁Gun	-11.6215
▁Kod	-11.622
▁IS	-11.6222
▁oskyldig	-11.6225
▁decreased	-11.6229
hon	-11.623
8)	-11.6231
▁Aren	-11.6234
CP	-11.6234
▁bestående	-11.6234
iso	-11.6235
▁Mars	-11.6235
lista	-11.6235
▁withdraw	-11.6236
MM	-11.6237
▁sammansättning	-11.624
ledare	-11.6242
tala	-11.6244
▁season	-11.6245
fas	-11.6246
MI	-11.6248
▁attacked	-11.6249
▁07	-11.625
▁Linda	-11.6252
ringen	-11.6252
▁Appendix	-11.6253
▁löper	-11.6253
▁signifikant	-11.6253
▁offentliggörs	-11.6253
▁föreslog	-11.6253
▁skilja	-11.6253
▁Aaron	-11.6253
▁commission	-11.6253
▁fakta	-11.6254
▁Penny	-11.6256
▁kde	-11.6256
▁tool	-11.6257
▁graviditet	-11.6262
▁tak	-11.6266
▁sufficiently	-11.6267
▁Mindre	-11.6269
▁togs	-11.6271
▁skickat	-11.6272
Qu	-11.6272
▁lyckliga	-11.6273
▁shake	-11.6277
▁rese	-11.6279
nut	-11.6279
▁samlade	-11.628
▁resolve	-11.628
▁oroar	-11.6296
▁Person	-11.6296
▁SPECIAL	-11.6297
▁idrott	-11.6297
▁laboratory	-11.6297
▁löst	-11.6297
▁placing	-11.6297
▁tvätta	-11.6298
▁fulfilled	-11.6298
▁Operation	-11.6301
▁Ekonomiska	-11.6303
▁Representative	-11.6304
▁Saint	-11.6305
▁wash	-11.6311
▁Ry	-11.6311
▁faced	-11.6314
2008	-11.6314
▁Ers	-11.6315
▁ordningen	-11.6316
▁varenda	-11.6316
▁närmar	-11.6317
▁önskan	-11.6318
stu	-11.6321
▁fake	-11.6322
▁hydro	-11.6322
▁Stat	-11.6322
ame	-11.6328
räkning	-11.633
▁Fat	-11.6331
▁Poly	-11.6331
slutning	-11.6332
▁koncentration	-11.6333
IV	-11.6334
▁behandlade	-11.6334
key	-11.6337
ify	-11.6339
▁härmed	-11.634
förfarandet	-11.6341
▁Thursday	-11.6341
▁ordinary	-11.6341
▁kilometer	-11.6342
▁sjunga	-11.6342
▁Davis	-11.6343
▁fever	-11.6344
▁financed	-11.6344
drar	-11.6347
PP	-11.6347
▁brutal	-11.6349
▁ki	-11.6351
▁sköter	-11.6351
▁snow	-11.6353
kamrat	-11.6355
▁upptäckt	-11.6355
▁kilo	-11.6356
born	-11.636
▁Dog	-11.636
▁ryska	-11.6361
▁clo	-11.6364
▁Dags	-11.6366
▁godkännandet	-11.6367
amid	-11.6368
▁opinions	-11.6368
▁torr	-11.637
skrift	-11.6371
(1	-11.6371
skonferensen	-11.6376
▁EMEA	-11.6377
kål	-11.6381
▁Las	-11.6382
La	-11.6383
mount	-11.6384
▁exit	-11.6385
▁diameter	-11.6386
▁holiday	-11.6386
▁revisionsrätten	-11.6386
▁dyker	-11.6386
▁semester	-11.6386
▁gömmer	-11.6386
▁sprida	-11.6387
▁Limited	-11.6387
minister	-11.6387
▁demokratin	-11.6389
▁föredrar	-11.6393
▁marginal	-11.6394
▁Lana	-11.6397
aid	-11.6397
ink	-11.6399
▁140	-11.6404
▁mum	-11.6404
▁hjärnan	-11.6405
Ge	-11.6406
▁rörelse	-11.6406
▁avsedd	-11.6407
▁farlig	-11.6409
▁akut	-11.641
▁tip	-11.6411
▁inkludera	-11.6413
itch	-11.6414
fonder	-11.6416
▁olja	-11.6417
▁2005,	-11.642
Who	-11.6426
▁sprid	-11.6427
▁universe	-11.6431
▁Pretty	-11.6431
▁mixture	-11.6431
▁tongue	-11.6431
▁bedömningen	-11.6431
cip	-11.6431
▁legitimate	-11.6432
▁Marcus	-11.6432
col	-11.6435
KOM	-11.6437
▁tomt	-11.6438
▁Seven	-11.6439
▁whoever	-11.6439
▁bite	-11.644
källa	-11.6443
▁(‘	-11.6445
▁pla	-11.6445
▁smaller	-11.6445
5-	-11.6446
▁förenkla	-11.6447
▁Kol	-11.6448
modell	-11.645
oon	-11.6451
▁organisera	-11.6451
▁nyckeln	-11.6452
▁94/	-11.6453
ash	-11.6455
▁center	-11.6457
1994	-11.6457
▁mordet	-11.6458
▁describe	-11.6459
▁Säkert	-11.646
▁solen	-11.6461
▁Karl	-11.6461
▁flyttade	-11.6464
▁print	-11.6466
▁PR	-11.6466
▁ci	-11.6466
▁armed	-11.6467
fallet	-11.6468
▁Calm	-11.6468
ddy	-11.647
anska	-11.6472
cap	-11.6475
▁welfare	-11.6475
▁Protection	-11.6476
▁Earl	-11.6476
jobb	-11.6477
▁belongs	-11.6477
▁referring	-11.6477
ila	-11.6478
dam	-11.6482
▁assigned	-11.6484
▁disappeared	-11.6487
▁Drop	-11.6488
▁konsekvenserna	-11.6489
▁lobby	-11.649
▁onda	-11.6491
▁golf	-11.6491
new	-11.6493
ÄN	-11.6493
▁uses	-11.6494
▁ömsesidig	-11.6494
This	-11.6496
▁row	-11.6497
olo	-11.6497
▁rolig	-11.6499
▁rose	-11.65
priset	-11.65
▁konstaterar	-11.6501
▁Manuel	-11.6501
Visst	-11.6501
▁sno	-11.6501
ware	-11.6502
▁flyger	-11.6502
▁10%	-11.6503
▁tillämpligt	-11.6503
vention	-11.6503
▁correspond	-11.6505
▁Shh	-11.6507
▁bucks	-11.6507
▁attacks	-11.6507
▁Rosa	-11.6508
)(	-11.651
tagen	-11.6512
▁guest	-11.6515
Di	-11.6516
▁USE	-11.6517
▁Amen	-11.6519
▁Elliot	-11.652
▁Mellanöstern	-11.652
▁beneficiary	-11.652
▁pregnancy	-11.652
▁ägde	-11.652
▁påminner	-11.652
▁Försvinn	-11.6521
phenyl	-11.6521
▁occurred	-11.6521
▁liberalisation	-11.6521
▁Tyler	-11.6522
utrustning	-11.6525
▁bordet	-11.6527
metoder	-11.6529
▁partial	-11.6531
▁föreslås	-11.6533
gus	-11.6533
▁överste	-11.6534
listan	-11.6534
▁anmäla	-11.6535
▁Walker	-11.6536
▁paint	-11.6536
▁respekterar	-11.6537
drift	-11.6542
▁Prev	-11.6545
▁stink	-11.6548
-6	-11.655
▁CD	-11.6551
▁experienced	-11.6551
▁inblandad	-11.6553
▁bjuder	-11.6554
▁poliser	-11.6557
▁tidsfrist	-11.6562
▁officers	-11.6563
▁glada	-11.6563
▁yo	-11.6563
▁voluntary	-11.6566
▁uppenbarligen	-11.6566
▁utgång	-11.6566
▁household	-11.6568
turn	-11.6569
▁ställs	-11.657
▁2010,	-11.6571
▁Also	-11.6573
ending	-11.6573
▁Jan	-11.6573
▁källa	-11.6577
▁pure	-11.6578
▁svenska	-11.6579
▁inrättandet	-11.658
kant	-11.6583
▁planerat	-11.6586
▁buss	-11.6587
▁Tru	-11.6588
hydroxi	-11.659
▁objekt	-11.6591
ATE	-11.6592
matic	-11.6592
▁fantasi	-11.6593
industrins	-11.6593
▁rush	-11.6594
▁games	-11.6596
▁röstat	-11.6598
▁nations	-11.66
▁condemn	-11.6602
uring	-11.6603
bert	-11.6603
▁försvar	-11.6604
▁Än	-11.6604
▁infektion	-11.6605
▁election	-11.6609
▁GO	-11.6609
▁fyll	-11.6609
▁rymd	-11.661
▁Väldigt	-11.6611
▁funeral	-11.6611
▁spännande	-11.6612
▁helg	-11.6612
ibility	-11.6613
▁rom	-11.6614
▁uppdraget	-11.6614
▁Välj	-11.6615
▁kur	-11.6615
ata	-11.6616
▁föddes	-11.6616
▁Save	-11.6616
företaget	-11.6617
▁tablett	-11.6617
▁väsentliga	-11.6618
▁VAT	-11.6618
▁volym	-11.662
▁suger	-11.662
▁diagnos	-11.6623
utskottet	-11.6624
▁urban	-11.6624
▁inkomster	-11.6624
tia	-11.6625
▁Book	-11.6626
LI	-11.6627
▁jä	-11.6627
▁dressed	-11.663
PC	-11.6632
▁blandning	-11.6632
▁Lita	-11.6634
▁öppnade	-11.6636
▁Ain	-11.6637
prop	-11.6638
▁jäveln	-11.6639
63	-11.6642
▁konsument	-11.6643
▁indicators	-11.6645
▁förluster	-11.665
lick	-11.6651
▁kontakter	-11.6652
lp	-11.6654
2007,	-11.6656
▁Gemenskapen	-11.6657
▁champagne	-11.6657
▁guidance	-11.6657
▁ljuga	-11.6657
▁understryka	-11.6657
▁yourselves	-11.6657
▁Bauer	-11.6657
▁Power	-11.6657
▁armé	-11.6658
▁betalt	-11.6659
▁grön	-11.6659
▁chest	-11.6659
▁Lake	-11.666
▁Left	-11.666
▁tappade	-11.666
▁Angeles	-11.6661
▁trädgård	-11.6662
▁derived	-11.6662
▁tablet	-11.6663
▁jury	-11.6664
▁rygg	-11.6664
ämne	-11.6665
▁ansluta	-11.6667
▁affär	-11.6667
▁verify	-11.6668
▁skyddade	-11.667
▁hu	-11.6671
▁centrum	-11.6674
säg	-11.6675
▁Farm	-11.6676
Artikel	-11.6679
lund	-11.6679
.’;	-11.6684
▁Film	-11.6684
kvot	-11.6686
▁drömmar	-11.6687
▁05	-11.6688
▁soil	-11.6691
▁pund	-11.6693
chloro	-11.6695
▁auto	-11.6696
▁08	-11.6696
▁130	-11.6696
table	-11.6697
▁båten	-11.6697
▁njur	-11.6702
pper	-11.6703
▁Department	-11.6703
▁fastställer	-11.6703
▁whilst	-11.6703
▁Föregående	-11.6703
▁tycka	-11.6703
▁punch	-11.6704
▁bright	-11.6705
reglerna	-11.6707
▁Asia	-11.6708
▁pistolen	-11.6708
▁pair	-11.6711
▁kap	-11.6711
▁scar	-11.6714
▁opposed	-11.6714
Ar	-11.6715
▁witch	-11.6716
▁rapporterade	-11.6717
▁olive	-11.6717
▁updated	-11.6718
:30	-11.672
▁svaga	-11.6721
▁hantering	-11.6722
▁2006,	-11.6722
▁stayed	-11.6723
ua	-11.6724
3.1	-11.6724
2008,	-11.6725
▁missade	-11.6727
▁tvätt	-11.6729
mas	-11.673
▁cab	-11.6735
▁representanten	-11.6736
3-	-11.6737
▁investerare	-11.6747
aci	-11.6747
huh	-11.6748
▁differ	-11.6749
▁EFTA	-11.6749
▁dölja	-11.6749
▁hybrid	-11.6749
▁jurisdiction	-11.6749
▁penalty	-11.6749
▁kritik	-11.6749
▁fotboll	-11.6749
▁monkey	-11.6749
▁Turkish	-11.6749
▁Vincent	-11.6749
▁Tess	-11.675
▁verkställande	-11.6751
cil	-11.6751
fish	-11.6752
AV	-11.6752
▁Anyone	-11.6752
2004	-11.6753
▁constitutes	-11.6754
▁Fair	-11.6754
▁Papa	-11.6755
▁ständiga	-11.6756
onetary	-11.6756
▁präst	-11.6757
▁beta	-11.6759
▁breach	-11.676
▁drabbas	-11.6762
▁ifred	-11.6764
▁konto	-11.6767
bling	-11.6768
sidan	-11.677
kes	-11.6772
cke	-11.6773
▁bearing	-11.6775
▁horses	-11.6776
karna	-11.6777
▁besvär	-11.6779
-7	-11.6783
▁djup	-11.6783
▁definiera	-11.6784
▁ears	-11.6784
▁sooner	-11.6784
▁gröna	-11.6786
▁väst	-11.6786
▁pu	-11.6787
anda	-11.6788
▁kraftigt	-11.679
▁retain	-11.6792
▁Uppgifter	-11.6792
▁precise	-11.6793
89	-11.6794
NC	-11.6795
▁betydligt	-11.6795
▁däremot	-11.6795
▁Employment	-11.6795
▁Miami	-11.6795
▁membership	-11.6796
▁chairman	-11.6799
▁hemsk	-11.6802
lika	-11.6802
▁chock	-11.6803
▁clock	-11.6803
istisk	-11.6806
▁måndag	-11.6806
▁Steven	-11.6807
▁regularly	-11.6808
▁talks	-11.6808
▁sällsynta	-11.6809
▁Sim	-11.6813
▁monitored	-11.6813
▁hook	-11.6814
▁löfte	-11.6817
▁5-	-11.6818
▁förståelse	-11.6819
ark	-11.6822
▁Pur	-11.6823
export	-11.6825
▁combating	-11.6826
▁dump	-11.6827
▁depend	-11.6827
▁chose	-11.6828
▁organic	-11.6828
ré	-11.6829
zen	-11.6832
utbildning	-11.6832
▁[3],	-11.6832
▁skär	-11.6835
▁109	-11.6835
▁dumpning	-11.6837
▁transition	-11.684
lex	-11.6841
▁Malcolm	-11.6842
▁destruction	-11.6842
▁jealous	-11.6842
▁plenty	-11.6842
▁preliminary	-11.6842
▁receipt	-11.6842
▁valuable	-11.6842
▁BNP	-11.6842
▁Medicine	-11.6842
▁clarify	-11.6842
▁exceptional	-11.6842
▁schablonvärden	-11.6842
▁rädsla	-11.6842
▁Hitler	-11.6842
uf	-11.6843
▁antagit	-11.6843
▁unique	-11.6843
▁buildings	-11.6844
ule	-11.6844
▁modifierade	-11.6845
▁Enough	-11.6845
▁hjärna	-11.6846
▁thin	-11.6847
UL	-11.6848
▁anklaga	-11.6852
▁180	-11.6853
▁Norman	-11.6853
nga	-11.6853
▁Mun	-11.6854
▁hired	-11.6855
▁Bio	-11.6856
▁internet	-11.686
▁trees	-11.6861
fritt	-11.6861
▁PRC	-11.6863
▁förvånad	-11.6865
▁städer	-11.6866
▁gifte	-11.6866
▁nivån	-11.6867
▁böcker	-11.6868
garna	-11.6869
▁beviljande	-11.6871
Ba	-11.6873
given	-11.6874
/100	-11.6876
fel	-11.6877
▁marknaderna	-11.6877
▁vol	-11.6878
▁Ange	-11.6878
phi	-11.6878
▁bekant	-11.6879
▁Within	-11.6879
SV	-11.688
▁absolute	-11.688
▁realized	-11.6881
▁Sand	-11.6881
▁Rad	-11.6881
▁lagra	-11.6884
▁Force	-11.6886
▁woods	-11.6888
▁independence	-11.6888
▁newspaper	-11.6888
▁Class	-11.6888
▁UNIONENS	-11.6888
▁execution	-11.6889
▁mjölkprodukter	-11.6889
▁troligen	-11.689
ei	-11.689
hindrar	-11.6891
▁personuppgifter	-11.6891
▁sysslar	-11.6891
Mr	-11.6891
▁Terry	-11.6893
▁Arab	-11.6893
▁kungen	-11.69
lägg	-11.69
▁dated	-11.6901
▁depression	-11.6903
▁beg	-11.6903
▁Legal	-11.6904
▁Liz	-11.691
▁naturally	-11.691
▁loser	-11.6911
char	-11.6912
▁Todd	-11.6916
▁Stone	-11.6919
▁sections	-11.692
ators	-11.6922
▁Slut	-11.6924
▁längst	-11.6924
▁repeal	-11.6926
active	-11.6927
lagt	-11.6928
▁rimlig	-11.6929
kul	-11.6929
-9	-11.6931
2.2	-11.6933
▁Syn	-11.6935
▁vulnerable	-11.6935
▁Iceland	-11.6935
▁syns	-11.6936
▁södra	-11.6936
▁Thus	-11.6936
▁Danish	-11.6937
▁Sto	-11.6937
96/	-11.6939
▁muntlig	-11.6939
▁lodged	-11.6939
▁cal	-11.694
▁Kära	-11.694
▁föreskriva	-11.6945
▁refugees	-11.6945
▁galet	-11.6946
▁1-	-11.6946
UT	-11.6946
▁Karen	-11.6947
dera	-11.6948
▁slutsatserna	-11.695
▁personligt	-11.6952
▁Medan	-11.6952
▁enhetlig	-11.6954
▁painting	-11.6955
▁skeppet	-11.6956
▁övertyga	-11.6957
ström	-11.6957
▁ends	-11.6961
försäljning	-11.6961
▁märker	-11.6962
filled	-11.6963
▁antagande	-11.6963
▁Mum	-11.6964
▁tackle	-11.6964
▁nationellt	-11.6965
▁slutlig	-11.6967
▁Svara	-11.6968
▁DA	-11.6971
▁emphasis	-11.6971
▁pee	-11.6972
▁tänk	-11.6973
▁evigt	-11.6974
dio	-11.6974
▁hålls	-11.6976
göra	-11.6976
Lo	-11.6977
skommittén	-11.6977
▁react	-11.6978
▁sudden	-11.6979
▁Civil	-11.6982
▁ugly	-11.6982
▁Estonia	-11.6982
▁fälla	-11.6982
ova	-11.6982
▁inflation	-11.6982
▁erbjudande	-11.6983
▁dosage	-11.6984
▁nä	-11.6985
CR	-11.6985
hydrat	-11.6985
▁knulla	-11.6987
▁intelligent	-11.6988
▁cutting	-11.6988
▁förstärkning	-11.6988
▁inrikta	-11.699
▁köpt	-11.699
räkna	-11.699
▁ensamma	-11.699
▁CI	-11.6992
oth	-11.6994
jk	-11.6994
lecommunications	-11.6995
ail	-11.6995
▁ärende	-11.6995
▁CH	-11.6995
▁institutionella	-11.6997
▁relate	-11.6997
BS	-11.6998
splan	-11.7
start	-11.7
▁Amendments	-11.7001
▁whereby	-11.7002
▁tråkigt	-11.7005
iter	-11.7006
▁improvements	-11.7007
▁brief	-11.7009
▁bru	-11.701
▁MR	-11.701
▁AB	-11.7011
gick	-11.7011
ENS	-11.7012
iness	-11.7013
▁hoppades	-11.7015
alla	-11.7016
▁helgen	-11.7016
▁plate	-11.7017
▁mobile	-11.7018
utveckling	-11.7022
▁Bla	-11.7023
jär	-11.7026
▁Catherine	-11.703
▁Relax	-11.703
▁Saturday	-11.703
▁authentic	-11.703
▁ovannämnda	-11.703
aging	-11.703
▁Wilson	-11.7031
▁marine	-11.7035
▁millions	-11.7035
ij	-11.7037
▁rope	-11.7037
▁sprit	-11.7039
anti	-11.704
▁Lag	-11.704
ctu	-11.7041
▁charged	-11.7042
ntergovernmental	-11.7044
▁Må	-11.7046
▁Real	-11.7047
▁precautions	-11.7047
▁utredning	-11.705
kurs	-11.7052
hereinafter	-11.7055
atory	-11.7055
▁Rob	-11.7058
▁Kara	-11.7058
cular	-11.706
▁coordinate	-11.7061
▁Pet	-11.7061
▁fabrik	-11.7062
▁institut	-11.7064
oz	-11.7065
▁indications	-11.7068
▁arbetat	-11.7069
▁utgången	-11.707
dal	-11.707
thro	-11.7073
▁poultry	-11.7077
▁Consequently	-11.7077
▁Montenegro	-11.7077
▁climb	-11.7077
▁nötkreatur	-11.7077
▁modification	-11.7078
▁grundar	-11.7078
▁Things	-11.7078
▁Amanda	-11.7078
▁glu	-11.7079
▁ätit	-11.7079
▁Roll	-11.708
▁tillhandahåller	-11.708
▁köket	-11.7083
▁lätta	-11.7083
▁Mus	-11.7084
wn	-11.7085
▁Ow	-11.7087
▁förväntade	-11.7088
▁fastställda	-11.7089
▁dragit	-11.7089
▁mångfald	-11.709
▁continent	-11.7093
▁semi	-11.7093
▁passagerare	-11.7093
▁tjänstemän	-11.7093
▁fönster	-11.7094
rian	-11.7095
▁katt	-11.7095
skott	-11.7097
fluoro	-11.7099
IST	-11.7102
▁Services	-11.7102
▁Eld	-11.7104
▁(”	-11.7105
▁flyktingar	-11.7107
▁pursue	-11.7108
iserad	-11.7109
NL	-11.7109
baserade	-11.7115
▁il	-11.7115
UD	-11.7117
▁Ron	-11.7117
▁läggs	-11.712
▁theory	-11.7124
▁refers	-11.7124
▁Taiwan	-11.7125
▁mirror	-11.7125
▁hunt	-11.7125
▁förefaller	-11.7126
▁RA	-11.7127
▁Burma	-11.7127
▁mobility	-11.7127
▁Carlos	-11.7127
card	-11.7128
▁Hor	-11.7131
▁aktivera	-11.7131
▁stadgan	-11.7132
▁möjlig	-11.7134
▁ärenden	-11.7134
▁mood	-11.7134
▁tested	-11.7135
▁Fil	-11.7135
▁väggen	-11.7136
▁kyckling	-11.7138
▁output	-11.7141
▁observation	-11.7143
färg	-11.7145
▁sexig	-11.7146
▁magi	-11.7149
skepp	-11.7152
▁humans	-11.7154
satta	-11.7155
▁vetenskap	-11.7157
▁uttalanden	-11.7158
▁fer	-11.7161
▁känslig	-11.7161
▁kandidat	-11.7162
ico	-11.7163
▁filled	-11.7163
▁2002,	-11.7163
propyl	-11.7166
läget	-11.7169
▁Press	-11.717
ölj	-11.717
▁tjugo	-11.7171
▁Belarus	-11.7173
▁Klockan	-11.7173
▁Kroatien	-11.7173
▁[7]	-11.7173
▁slept	-11.7173
▁nötkött	-11.7173
▁bodde	-11.7173
▁issuing	-11.7173
▁Believe	-11.7174
▁tourism	-11.7174
sstöd	-11.7174
▁cease	-11.7174
▁Lucas	-11.7175
aver	-11.7176
▁103	-11.7178
▁channel	-11.7181
▁olagligt	-11.7182
▁extract	-11.7182
▁hävdade	-11.7183
▁meddelanden	-11.7185
▁sänka	-11.7185
▁keeps	-11.7189
▁sammanhanget	-11.7192
Hi	-11.7193
▁botten	-11.7193
▁PRO	-11.7194
trum	-11.7199
▁förvärv	-11.7199
▁bath	-11.7199
▁bög	-11.7201
itz	-11.7201
datum	-11.7202
▁difficulty	-11.7202
▁recover	-11.7204
▁%1	-11.7206
▁Best	-11.7206
fast	-11.7207
▁fingers	-11.7207
▁Auto	-11.7208
▁kallt	-11.7209
▁chat	-11.721
gro	-11.721
▁Luc	-11.7214
dol	-11.7214
▁respected	-11.7215
▁bid	-11.7216
30/	-11.7217
▁ställt	-11.722
▁brilliant	-11.7222
▁scrap	-11.7222
▁knappast	-11.7222
▁remote	-11.7222
▁telephone	-11.7222
▁constructive	-11.7222
▁tilldelning	-11.7224
▁cities	-11.7227
▁discovered	-11.7228
▁Slovakia	-11.7229
▁blommor	-11.7231
▁detaljer	-11.7231
▁Frankie	-11.7232
▁Were	-11.7232
▁passion	-11.7234
▁105	-11.7235
My	-11.7237
givit	-11.7239
▁kört	-11.7241
▁tjuv	-11.7242
▁sat	-11.7243
pati	-11.7245
▁screw	-11.7245
▁tron	-11.7245
▁kommunikations	-11.7246
sverksamhet	-11.7247
▁ärendet	-11.7248
slaget	-11.7249
▁arrive	-11.7253
▁perspektiv	-11.7254
▁förnya	-11.7255
▁info	-11.7256
▁förbättringar	-11.7257
rod	-11.7259
▁committees	-11.726
▁3).	-11.7262
▁störa	-11.7265
▁torka	-11.7265
betänkandet	-11.7266
▁definitive	-11.7268
▁gränserna	-11.7269
▁hepatic	-11.727
▁sampling	-11.727
▁Position	-11.727
▁sprang	-11.727
▁stood	-11.7271
▁GDP	-11.7271
▁utfärdas	-11.7271
▁jerk	-11.7271
▁upphäva	-11.7273
▁exclusively	-11.7274
▁Fyra	-11.7275
▁monetära	-11.7276
▁largest	-11.7277
▁chick	-11.7279
rättigheter	-11.728
gging	-11.728
▁arrangement	-11.728
▁ändrar	-11.7283
▁tend	-11.7286
▁sch	-11.7288
instrument	-11.7291
▁slit	-11.7292
▁2008,	-11.7293
Som	-11.7294
iserat	-11.7296
barn	-11.7297
▁Guy	-11.7297
▁votes	-11.7298
finansiering	-11.7298
kropp	-11.7298
▁observations	-11.7301
▁yttersta	-11.7303
ppar	-11.7304
▁Ät	-11.7304
▁Eh	-11.7304
▁DI	-11.7305
▁6.2	-11.7305
frihet	-11.7307
▁visual	-11.7308
▁succeed	-11.7309
▁hotell	-11.731
▁Tio	-11.7314
▁diet	-11.7315
▁Polish	-11.7315
▁Enterprise	-11.7319
▁Neither	-11.7319
▁subsidiarity	-11.7319
▁crowd	-11.7319
▁fought	-11.7319
▁grekiska	-11.7319
TAIL	-11.732
▁föreställa	-11.732
▁grabbar	-11.7321
bidrag	-11.7321
▁tand	-11.7325
hall	-11.7326
▁kravet	-11.7327
▁mol	-11.7327
tle	-11.733
▁mottagande	-11.733
▁jäkla	-11.7331
3.2	-11.7333
▁dozen	-11.7335
ory	-11.7335
▁kal	-11.7338
▁50%	-11.7338
▁officially	-11.734
▁1%	-11.734
name	-11.7342
▁Kind	-11.7342
diska	-11.7342
▁pågående	-11.7343
▁praktiskt	-11.7343
▁mistakes	-11.7344
rol	-11.7346
▁halsen	-11.7346
▁lad	-11.7346
▁otrolig	-11.7346
▁beredning	-11.7346
Where	-11.7347
▁halva	-11.7348
▁mej	-11.7349
rage	-11.7351
▁Form	-11.7352
▁Hotel	-11.7352
▁styrelsen	-11.7358
▁Honom	-11.7359
cou	-11.7361
▁förutsättningar	-11.7362
Bo	-11.7365
sgrad	-11.7365
▁4.4	-11.7366
▁covers	-11.7366
▁Sweet	-11.7367
▁pharmacokinetic	-11.7368
▁politics	-11.7368
▁religious	-11.7368
▁Answer	-11.7368
▁resistance	-11.7368
▁unknown	-11.7369
▁Canada	-11.737
version	-11.737
nick	-11.7371
▁allra	-11.7375
▁bråka	-11.7375
▁efterfrågan	-11.7375
CAS	-11.7377
▁mercy	-11.7379
▁organization	-11.738
▁scare	-11.7382
teri	-11.7386
▁uppgå	-11.7387
▁vägar	-11.7388
▁Era	-11.7391
▁kön	-11.7392
ello	-11.7392
▁Bäst	-11.7393
▁individuella	-11.7394
skapet	-11.7395
▁2003,	-11.7398
▁konstitutionen	-11.7398
▁hora	-11.7401
ians	-11.7401
20/	-11.7401
OT	-11.7402
▁qua	-11.7403
▁Normal	-11.7406
▁Bus	-11.7406
1.3	-11.741
öp	-11.741
▁vittne	-11.741
▁Para	-11.7412
▁offentligt	-11.7415
▁angle	-11.7415
▁138	-11.7417
▁Zimbabwe	-11.7417
▁unik	-11.7418
▁Sudan	-11.7418
▁Western	-11.7418
RU	-11.7419
▁replacement	-11.7419
iro	-11.7419
▁befogenhet	-11.7423
▁reward	-11.7424
▁suspended	-11.7424
▁forskare	-11.7424
▁männen	-11.7426
▁Blod	-11.7427
▁IE	-11.7427
avgifter	-11.7428
ille	-11.743
▁Båda	-11.7433
▁chip	-11.7434
inter	-11.7434
ection	-11.7437
teckning	-11.7438
▁alia	-11.7438
uz	-11.7439
▁Jesse	-11.7439
198	-11.7442
gav	-11.7444
▁stra	-11.7444
▁lågt	-11.7446
gul	-11.7446
ook	-11.7447
▁sets	-11.7447
▁sites	-11.7449
▁studied	-11.7449
▁utsläpps	-11.7451
▁förordningar	-11.7451
▁argue	-11.7451
fordon	-11.7453
▁skadade	-11.7454
▁affecting	-11.7454
mässigt	-11.7454
▁förslagen	-11.7456
hn	-11.7459
skor	-11.7462
▁konflikter	-11.7464
▁expensive	-11.7467
▁preparing	-11.7467
▁securities	-11.7467
▁piano	-11.7467
▁utgångspunkt	-11.7467
▁förväntningar	-11.7467
▁yellow	-11.7467
▁Blair	-11.7467
▁(—	-11.7468
▁Norway	-11.7468
▁Nancy	-11.7468
▁principal	-11.7468
▁begränsade	-11.7468
▁uppfatta	-11.7469
▁machinery	-11.7469
▁Aye	-11.7469
▁acceptance	-11.747
▁UPPGIFTER	-11.7471
▁favourable	-11.7473
▁documentation	-11.7473
▁artikeln	-11.7474
rip	-11.7476
▁handled	-11.7476
årig	-11.7478
▁Ruth	-11.748
Con	-11.7481
▁sha	-11.7481
▁108	-11.7485
▁producing	-11.7488
▁­	-11.749
marknad	-11.749
▁Kris	-11.7494
▁secrets	-11.7496
▁cur	-11.7497
stjänster	-11.7497
sprocess	-11.75
▁PA	-11.7501
lagda	-11.7502
▁crimes	-11.7502
▁hor	-11.7502
▁gissa	-11.7504
operatör	-11.7506
▁träffades	-11.7507
▁Direktiv	-11.7507
▁kostnads	-11.7508
▁konflikt	-11.7509
▁350	-11.7511
▁dialogen	-11.7512
▁possess	-11.7514
▁served	-11.7515
▁[2].	-11.7516
▁territories	-11.7516
▁konferens	-11.7517
▁nigger	-11.7517
▁solvent	-11.7517
▁Människor	-11.7517
200	-11.7518
▁uteslutande	-11.752
▁fra	-11.7523
▁farfar	-11.7523
kontroller	-11.7523
fenyl	-11.7523
kur	-11.7526
▁Send	-11.7527
nivåerna	-11.7527
▁grupperna	-11.7529
givning	-11.7529
icle	-11.7529
▁potentiella	-11.753
▁makten	-11.7531
▁rash	-11.7532
▁pissed	-11.7534
▁inlägg	-11.7535
▁Tog	-11.7539
▁givit	-11.754
▁satellit	-11.7541
Let	-11.7542
volym	-11.7543
LL	-11.7549
▁förstörde	-11.7551
▁rapportering	-11.7553
▁Klart	-11.7554
▁varav	-11.7559
▁Kyoto	-11.7559
kommissionen	-11.756
fonden	-11.7561
▁Note	-11.7566
▁irbesartan	-11.7566
▁magazine	-11.7566
▁threw	-11.7566
▁container	-11.7567
ordningen	-11.7567
▁exclusion	-11.7567
▁proposing	-11.7567
▁kronisk	-11.7567
▁toxicity	-11.7567
▁kidney	-11.7568
inna	-11.7568
▁berg	-11.7569
▁Hög	-11.7569
knut	-11.7569
▁förändrats	-11.7569
Deras	-11.757
▁Moses	-11.7572
åtgärd	-11.7573
▁mynt	-11.7574
▁2007,	-11.7578
▁hävdar	-11.7578
bedömning	-11.7579
▁blödning	-11.7582
▁Stephen	-11.7582
vik	-11.7583
▁sakna	-11.7584
▁inner	-11.7586
▁fåglar	-11.7586
▁förena	-11.7586
märkning	-11.7586
▁armén	-11.7588
▁Sur	-11.7588
▁mängder	-11.759
▁avreglering	-11.7596
▁gra	-11.7601
▁Rh	-11.7603
nå	-11.7604
▁stänger	-11.7606
▁hållas	-11.7606
▁opt	-11.7606
förbrukning	-11.7607
▁reveal	-11.7607
tus	-11.7608
60/	-11.7608
▁engagera	-11.7612
▁yttra	-11.7615
▁210	-11.7615
▁Again	-11.7616
▁Obviously	-11.7617
▁incurred	-11.7617
▁maritime	-11.7617
▁platform	-11.7617
▁smooth	-11.7617
▁peaceful	-11.7617
▁Internal	-11.7617
▁walls	-11.7617
PS	-11.7617
▁huvudsakliga	-11.7617
▁anvisningar	-11.7618
▁hostage	-11.7618
▁Hard	-11.7618
odling	-11.762
▁Senator	-11.762
stitut	-11.7622
▁medge	-11.7622
▁messages	-11.7623
▁rapidly	-11.7623
▁somehow	-11.7624
▁hamna	-11.7627
borg	-11.7627
▁desperate	-11.7628
ige	-11.7629
osis	-11.763
▁cock	-11.763
▁stads	-11.7632
▁fastställdes	-11.7633
▁hundreds	-11.7635
▁2:	-11.7636
tum	-11.7636
▁Schweiz	-11.7639
▁underteckna	-11.764
▁pol	-11.764
▁strand	-11.7642
mmel	-11.7643
väv	-11.7644
▁2015	-11.7649
bör	-11.7649
användning	-11.7651
ingar	-11.7651
▁direkta	-11.7655
KA	-11.7655
organisationerna	-11.7657
▁påbörja	-11.766
▁järnväg	-11.7662
▁Cur	-11.7663
fiskeripolitiken	-11.7664
▁landing	-11.7665
stol	-11.7666
▁varann	-11.7667
▁fifth	-11.7667
▁incredible	-11.7667
▁intravenös	-11.7667
▁miracle	-11.7667
▁sneak	-11.7667
▁vuxen	-11.7667
▁Minutes	-11.7667
▁Northern	-11.7668
▁swim	-11.7668
▁förse	-11.767
▁leak	-11.767
▁Fader	-11.7671
▁badly	-11.7672
▁solely	-11.7672
▁Pay	-11.7674
GA	-11.7677
▁sjuka	-11.7678
▁samhälls	-11.7678
▁åtfölja	-11.7679
▁liar	-11.7681
▁Hope	-11.7685
▁Stark	-11.7685
▁transaction	-11.7685
▁Killen	-11.7686
▁Cy	-11.7686
myndighet	-11.7686
jäl	-11.7688
glar	-11.7688
▁strategiska	-11.7688
bygg	-11.769
▁equally	-11.7692
▁miljöskydd	-11.7693
jen	-11.7693
what	-11.7695
▁psycho	-11.7695
▁snällt	-11.7698
▁ending	-11.7698
▁whore	-11.7699
maskiner	-11.77
▁klient	-11.7703
▁upphäv	-11.7703
▁skum	-11.7705
sområden	-11.7706
▁rättvist	-11.7709
▁chi	-11.7709
▁inrättas	-11.7709
▁förneka	-11.771
▁planerar	-11.7711
▁kvaliteten	-11.7713
sey	-11.7713
▁skönt	-11.7713
▁Synd	-11.7715
▁rod	-11.7716
▁Global	-11.7718
▁Resolution	-11.7718
▁subsidiaritet	-11.7718
▁territorial	-11.7718
▁criticism	-11.7718
▁closing	-11.7718
▁Martha	-11.7719
▁legend	-11.7719
▁punishment	-11.7719
▁säte	-11.7719
▁subkutan	-11.772
▁gris	-11.772
▁overcome	-11.7721
▁prioritet	-11.7724
HA	-11.7725
diga	-11.7725
kostnader	-11.7726
RY	-11.7729
▁bike	-11.7729
▁Prov	-11.773
2006	-11.773
▁intravenous	-11.7731
▁bluff	-11.7731
▁restricted	-11.7737
▁värderingar	-11.7738
▁suggested	-11.7739
▁belt	-11.774
▁anslutningen	-11.774
gate	-11.7741
▁övergångs	-11.7742
▁personligen	-11.7742
nik	-11.7742
▁strategin	-11.7742
▁föda	-11.7745
bby	-11.7747
chy	-11.7748
organisationen	-11.775
▁Prince	-11.7754
process	-11.7754
▁förväg	-11.7756
satsen	-11.7759
resultat	-11.7762
qua	-11.7762
faller	-11.7762
frukt	-11.7764
▁hack	-11.7765
▁hastighet	-11.7767
▁riskerna	-11.7767
▁uppföljning	-11.7769
▁Adjö	-11.7769
▁Tjeckien	-11.7769
▁förbjuda	-11.7769
▁initiation	-11.7769
▁unusual	-11.7769
▁täcker	-11.7769
▁teori	-11.7771
▁väcka	-11.7774
▁goodbye	-11.7776
▁excluding	-11.7776
▁fartyget	-11.7776
ional	-11.7778
▁industries	-11.7778
▁von	-11.7779
2010,	-11.7782
▁hav	-11.7786
▁utgifterna	-11.7788
▁neighbour	-11.7788
lib	-11.7792
▁aktier	-11.7793
klo	-11.7793
▁Mil	-11.7794
▁PVC	-11.7794
view	-11.7799
▁mul	-11.78
approval	-11.7802
▁orsakade	-11.7802
▁ignore	-11.7803
trans	-11.7805
▁klipp	-11.7807
överskridande	-11.7807
▁universitet	-11.7809
▁skadar	-11.7811
▁lately	-11.7811
ike	-11.7813
▁proposes	-11.7814
cat	-11.7816
stä	-11.7818
▁källor	-11.7819
▁Vita	-11.782
▁sergeant	-11.782
▁smoking	-11.782
▁Instead	-11.782
▁episode	-11.782
▁lydelse	-11.782
▁Ethan	-11.782
▁priest	-11.7821
▁eventually	-11.7822
▁Wayne	-11.7822
▁span	-11.7822
▁apparently	-11.7824
▁existerar	-11.7826
gli	-11.7827
▁förlust	-11.7827
ONE	-11.7827
▁inhemska	-11.783
▁Nah	-11.783
▁grann	-11.7833
▁cleaning	-11.7835
hard	-11.7838
▁complaint	-11.7838
▁centres	-11.7839
gård	-11.7839
organisation	-11.784
▁gradvis	-11.7841
▁Säger	-11.7842
▁upper	-11.7843
eal	-11.7844
lapp	-11.7844
▁ingick	-11.7845
▁gynna	-11.7846
▁upprättas	-11.7848
▁paus	-11.785
▁stryk	-11.7853
spect	-11.7854
▁negativ	-11.7854
▁divorce	-11.7855
▁Off	-11.7855
▁Flyg	-11.7856
type	-11.7858
▁Pharma	-11.7859
▁vild	-11.786
scale	-11.7861
tron	-11.7861
IF	-11.7864
▁friendly	-11.7864
▁patch	-11.7865
igo	-11.7868
▁certification	-11.7872
▁downstairs	-11.7872
▁Lewis	-11.7872
▁dossier	-11.7872
▁levde	-11.7872
rack	-11.7872
▁Junior	-11.7873
▁besegra	-11.7873
▁bread	-11.7874
▁Marshall	-11.7874
▁nederländska	-11.7875
▁utfärdats	-11.7875
▁PRODUCT	-11.7876
▁ursäkta	-11.7877
▁entering	-11.7879
▁tillbringa	-11.7879
▁bröd	-11.788
kommitténs	-11.788
▁sought	-11.7881
▁runs	-11.7884
▁Figure	-11.7884
▁treaty	-11.7887
▁specifications	-11.7888
▁satsa	-11.7889
▁vitro	-11.7893
Med	-11.7894
rank	-11.7894
▁dök	-11.7894
▁regeringarna	-11.7895
stic	-11.7896
▁breathing	-11.7897
▁Main	-11.7902
▁topp	-11.7905
känsla	-11.7906
▁bevarande	-11.7907
▁stilla	-11.7907
PE	-11.7908
uli	-11.7911
▁festen	-11.7912
▁spi	-11.7912
▁advanced	-11.7914
lut	-11.7916
ativ	-11.7917
▁herre	-11.7918
▁resan	-11.7918
▁sång	-11.7918
▁Yu	-11.792
▁förebygga	-11.7921
▁luftfartyg	-11.7921
▁växa	-11.7922
▁rip	-11.7922
▁slave	-11.7922
marknaderna	-11.7923
▁Huvud	-11.7923
lation	-11.7923
▁Särskilt	-11.7924
▁celebrate	-11.7924
▁shield	-11.7924
▁vederbörlig	-11.7924
▁Själv	-11.7924
▁Further	-11.7924
▁såvida	-11.7924
▁Harvey	-11.7924
▁rubber	-11.7924
▁Katie	-11.7926
priserna	-11.7928
▁obliged	-11.7929
-8	-11.7929
▁killarna	-11.7929
▁pillar	-11.7929
▁subsequently	-11.7931
rev	-11.7938
00000	-11.7939
▁offentliggöra	-11.794
▁idén	-11.7942
graph	-11.7942
▁spräng	-11.7943
▁Guidelines	-11.7945
läcka	-11.7947
ched	-11.7948
▁träda	-11.7949
missile	-11.7951
PR	-11.7951
▁focused	-11.7954
rekommendationer	-11.7954
▁Products	-11.7955
aktiv	-11.7955
▁engage	-11.7955
▁stjäla	-11.7956
ryck	-11.7959
▁regimen	-11.7959
SD	-11.796
▁satisfy	-11.796
▁harder	-11.796
ELL	-11.7961
,8	-11.7961
▁movies	-11.7961
▁fiender	-11.7961
▁players	-11.7962
tetra	-11.7965
▁radar	-11.7965
▁placera	-11.7966
före	-11.7966
▁maintaining	-11.7967
▁röka	-11.7967
▁Mid	-11.7968
▁utesluta	-11.7973
▁falla	-11.7973
rated	-11.7975
hä	-11.7975
▁begränsning	-11.7975
▁volunteer	-11.7976
▁Investment	-11.7976
▁Slovenien	-11.7976
▁chocolate	-11.7976
▁comparable	-11.7976
▁consensus	-11.7976
▁nutrition	-11.7976
▁diversity	-11.7976
▁fiscal	-11.7976
▁governance	-11.7976
▁fishery	-11.7977
▁leverfunktion	-11.7977
▁Arbets	-11.7977
▁click	-11.7977
▁Angående	-11.7978
▁reverse	-11.7982
▁Tills	-11.7984
▁initiated	-11.7989
She	-11.799
▁dust	-11.7993
sättningen	-11.7994
järn	-11.7994
▁Toppen	-11.7995
▁resist	-11.7995
▁whi	-11.7997
▁therein	-11.7997
▁vidtagits	-11.8
▁simma	-11.8002
▁101	-11.8002
▁verklighet	-11.8005
▁åkt	-11.8005
▁kollade	-11.8007
▁jack	-11.8009
President	-11.8011
▁nail	-11.8012
▁Nina	-11.8013
▁medlen	-11.8014
wide	-11.8014
ulär	-11.8015
▁kyss	-11.8015
▁importers	-11.8016
direktivet	-11.8022
▁Mur	-11.8022
▁update	-11.8023
▁Snyggt	-11.8024
▁apotekspersonal	-11.8028
▁besviken	-11.8028
▁försämra	-11.8028
▁Supplement	-11.8028
▁choklad	-11.8028
▁broms	-11.8028
▁webbplats	-11.8028
▁yrkesutbildning	-11.8028
▁naked	-11.8029
▁virtue	-11.8029
▁corruption	-11.8029
▁förbehåll	-11.8029
▁Hem	-11.8029
▁assistant	-11.803
▁värdepapper	-11.8031
▁Deb	-11.8031
▁bristande	-11.8031
bag	-11.8032
▁Allmänna	-11.8032
▁introducing	-11.8033
▁constantly	-11.8034
▁2000/	-11.8035
▁korta	-11.8035
▁hamnade	-11.8038
▁Type	-11.8038
tyg	-11.804
▁maten	-11.8041
▁tips	-11.8041
▁strategies	-11.8042
▁Georgia	-11.8043
▁Berg	-11.8044
▁konsekvens	-11.8045
▁floden	-11.8049
▁skratta	-11.8051
▁funnits	-11.8052
oxo	-11.8053
direktiv	-11.8053
fält	-11.8053
▁parliaments	-11.8056
▁starts	-11.8056
▁style	-11.8056
▁preliminär	-11.8057
rika	-11.8057
▁4.5	-11.8059
▁dikt	-11.8059
▁FR	-11.806
PD	-11.8061
▁hip	-11.8061
Vet	-11.8063
▁skinn	-11.8065
supervisory	-11.8065
▁hjul	-11.8066
otic	-11.8067
▁links	-11.8068
▁tilldelas	-11.8069
▁uppför	-11.807
▁farming	-11.8072
▁strukturer	-11.8072
▁bråk	-11.8072
▁parameters	-11.8073
open	-11.8075
▁toxic	-11.8077
▁Boss	-11.8078
▁exploit	-11.8079
▁Vänd	-11.808
▁Användning	-11.808
▁neighbor	-11.8081
▁WHAT	-11.8081
▁dröjsmål	-11.8081
▁exciting	-11.8081
▁extensive	-11.8081
▁annanstans	-11.8081
▁preced	-11.8081
▁nightmare	-11.8081
▁popular	-11.8081
▁konstnär	-11.8081
▁harmful	-11.8081
▁genomsnitt	-11.8081
lön	-11.8082
▁gym	-11.8082
▁Pas	-11.8083
försäkring	-11.8083
▁införliva	-11.8086
▁irländska	-11.8086
▁Americans	-11.8087
▁Bond	-11.8088
▁elak	-11.8089
▁praktiska	-11.809
▁divided	-11.809
org	-11.809
▁glucose	-11.8091
▁swing	-11.8091
▁tänder	-11.8092
▁Order	-11.8092
▁väsentligt	-11.8093
ismen	-11.8094
▁damen	-11.8095
▁Ann	-11.8096
▁models	-11.8104
▁involves	-11.8104
▁tillverkarna	-11.8107
▁ATT	-11.8107
sfrågor	-11.8108
platsen	-11.8109
stig	-11.811
▁hävda	-11.811
ministrar	-11.8111
▁bat	-11.8113
▁tear	-11.8113
▁poster	-11.8115
gui	-11.8116
▁varning	-11.8116
▁Won	-11.8116
▁utförts	-11.8118
▁asset	-11.812
▁vilse	-11.8123
▁stimulera	-11.8125
▁fångst	-11.8127
▁MO	-11.8127
▁producenter	-11.8128
fund	-11.8132
▁utse	-11.8133
▁Gentlemen	-11.8134
▁unfair	-11.8134
▁avsevärt	-11.8134
▁OECD	-11.8134
▁elderly	-11.8134
▁buried	-11.8134
▁trauma	-11.8134
▁hidden	-11.8134
▁Randy	-11.8134
▁bibehålla	-11.8135
bad	-11.8135
▁erinra	-11.8138
▁fjäderfä	-11.8138
▁snack	-11.8139
▁Cross	-11.814
▁west	-11.8142
▁pur	-11.8142
▁elektronisk	-11.8144
▁fysisk	-11.8145
▁contents	-11.8145
▁scan	-11.8146
▁Lä	-11.8148
▁naturliga	-11.8148
▁hemligheter	-11.815
▁youth	-11.8152
strid	-11.8154
▁Ford	-11.8155
▁(0	-11.8155
produkt	-11.8155
▁ränta	-11.8155
▁behörig	-11.8155
skäl	-11.8156
▁byggde	-11.8157
hoo	-11.8158
▁Anton	-11.8159
▁tillhandahålls	-11.8159
▁pigs	-11.8165
ora	-11.8166
Well	-11.8166
77/	-11.8168
/2006	-11.817
▁tvist	-11.8173
▁arguments	-11.8173
▁Sign	-11.8177
▁mandat	-11.818
more	-11.818
satser	-11.818
▁råka	-11.8181
▁konsumenten	-11.8181
▁acquis	-11.8187
▁1782/2003	-11.8187
▁PARTICULARS	-11.8187
▁counsel	-11.8187
▁flood	-11.8187
▁konsekvent	-11.8187
▁manufacturing	-11.8187
▁Goddamn	-11.8187
▁Hälsa	-11.8187
▁beauty	-11.8187
▁manifest	-11.8187
▁sim	-11.8187
▁decline	-11.8187
▁senior	-11.8187
▁enemies	-11.8187
gula	-11.8187
▁Hollywood	-11.8187
▁composition	-11.8187
skall	-11.8187
▁Japanese	-11.8187
▁Dexter	-11.8187
▁bedroom	-11.8188
ona	-11.8192
▁Eight	-11.8193
▁kostym	-11.8196
▁fack	-11.8197
▁consisting	-11.8198
▁tunga	-11.8199
▁traditionella	-11.8199
▁kommitténs	-11.82
▁rättsligt	-11.8204
grep	-11.8204
etter	-11.8206
▁Lång	-11.8206
▁preventing	-11.8206
ended	-11.8206
▁wherever	-11.8208
▁Wake	-11.821
ägg	-11.8216
▁marknadsekonomi	-11.8217
▁bla	-11.8217
78/	-11.8217
ända	-11.8217
vagn	-11.8219
eous	-11.822
savtal	-11.8221
▁joined	-11.8223
▁okänd	-11.8224
operation	-11.8227
▁mäta	-11.8231
▁Comm	-11.8237
▁gåva	-11.8237
kandidatländerna	-11.8239
▁decisive	-11.824
▁gisslan	-11.824
▁fingeravtryck	-11.824
▁dosering	-11.8241
-(	-11.8241
▁kontrollerade	-11.8242
▁defeat	-11.8242
▁Round	-11.8242
▁betydelsefull	-11.8243
▁orsakat	-11.8243
▁humor	-11.8244
våning	-11.8244
▁prövning	-11.8244
▁Specific	-11.8244
Låt	-11.8245
▁rykte	-11.8245
komma	-11.8246
▁strunta	-11.8246
ela	-11.8247
ington	-11.8248
▁hemska	-11.8249
spår	-11.8249
▁murderer	-11.8251
▁stäng	-11.8252
▁collect	-11.8254
▁thereto	-11.8257
▁launched	-11.8257
▁föroreningar	-11.8258
▁beskriva	-11.8263
aka	-11.8263
▁organismer	-11.8263
vitt	-11.8263
▁subventioner	-11.8264
gren	-11.8266
perioden	-11.8267
▁ingredients	-11.8269
efter	-11.8275
▁fortsatte	-11.8278
▁döma	-11.8279
▁beräkningen	-11.828
▁överträdelse	-11.828
▁proved	-11.8281
▁burning	-11.8282
▁fet	-11.8282
tions	-11.8283
coming	-11.8283
▁exhaust	-11.8285
▁stannade	-11.8287
▁hugg	-11.8289
fluor	-11.8291
ografi	-11.8291
imi	-11.8293
▁gifter	-11.8293
▁representant	-11.8294
▁fullo	-11.8294
▁accurate	-11.8294
▁credibility	-11.8294
▁palestinsk	-11.8294
▁njurfunktion	-11.8294
▁torsdag	-11.8294
▁avkastning	-11.8295
▁1999,	-11.8297
▁confused	-11.8298
▁därigenom	-11.8299
torn	-11.83
▁toilet	-11.8301
stor	-11.8304
▁plain	-11.8305
▁Feel	-11.8306
▁eventuell	-11.8307
▁klubb	-11.8312
▁negativt	-11.8315
▁Ye	-11.8315
▁framme	-11.8315
▁deserves	-11.8316
▁burned	-11.8318
▁Ran	-11.8318
ifying	-11.832
(3),	-11.8322
▁MAN	-11.8322
▁nätet	-11.8322
natt	-11.8323
TI	-11.8325
VI	-11.8325
▁seats	-11.8326
▁adults	-11.8328
▁släppte	-11.8329
givare	-11.8329
▁springer	-11.833
▁2001,	-11.833
▁Fly	-11.833
▁Change	-11.833
▁konstitution	-11.8331
studier	-11.8332
▁inspections	-11.8332
▁Rå	-11.8332
▁Vä	-11.8336
ough	-11.834
▁tillfällen	-11.8341
▁centralbank	-11.8341
▁löne	-11.8342
▁Ul	-11.8343
ökning	-11.8344
▁Pact	-11.8345
▁intervju	-11.8346
▁mostly	-11.8348
▁Referens	-11.8348
▁Liechtenstein	-11.8348
▁Stockholm	-11.8348
▁bjöd	-11.8348
▁efficacy	-11.8348
▁lördag	-11.8348
▁struggle	-11.8348
▁författningar	-11.8348
▁properties	-11.8348
")	-11.8349
▁arising	-11.8349
▁tidningen	-11.8349
▁legally	-11.8352
▁harvest	-11.8352
▁Allison	-11.8353
eur	-11.8354
▁Bravo	-11.8355
▁recording	-11.8355
▁prohibited	-11.8356
▁spruta	-11.8356
▁lidande	-11.8356
▁adjusted	-11.8357
▁återvänder	-11.8357
▁kompensation	-11.836
▁Maj	-11.8361
▁shell	-11.8363
▁lyfta	-11.8366
▁främjar	-11.8366
▁Verk	-11.8369
▁tap	-11.837
▁grader	-11.8372
▁hill	-11.8373
▁Sar	-11.8374
ides	-11.8375
initiativ	-11.8377
▁skjut	-11.8378
▁electric	-11.8379
▁forth	-11.838
lene	-11.8381
▁Rev	-11.8381
▁zoo	-11.8385
▁trailer	-11.8385
▁upptäckte	-11.8385
▁convince	-11.8386
frekvens	-11.8387
Vänta	-11.8387
▁omsättning	-11.839
▁inrättande	-11.839
EST	-11.8391
▁Exp	-11.8395
▁(5	-11.8398
lution	-11.8398
▁rub	-11.8398
▁läkar	-11.8399
▁observer	-11.8402
▁flexible	-11.8402
▁Brazil	-11.8403
▁automatically	-11.8403
▁awake	-11.8403
såg	-11.8405
▁genius	-11.8406
AND	-11.8406
▁euroområdet	-11.8406
▁Skål	-11.8407
▁Copy	-11.8408
myndigheterna	-11.8409
▁kopp	-11.8411
rock	-11.8411
▁Läget	-11.8412
▁nord	-11.8412
But	-11.8416
▁Way	-11.8419
▁tail	-11.8419
▁tick	-11.8419
fram	-11.8419
▁handlade	-11.842
▁speakers	-11.8423
▁string	-11.8424
▁gar	-11.8425
▁byråkrati	-11.8428
priser	-11.8428
▁främjande	-11.8429
gga	-11.8429
▁Tull	-11.843
▁hunting	-11.8432
▁Sally	-11.8432
▁ät	-11.8433
dö	-11.8436
▁straffa	-11.8436
▁Erik	-11.8436
▁Israeli	-11.8438
▁Fy	-11.8441
▁boost	-11.8441
▁Bestämmelser	-11.8446
▁legat	-11.8447
▁Kong	-11.8449
▁Gene	-11.8451
▁bow	-11.8452
stein	-11.8453
▁svårare	-11.8456
tå	-11.8456
▁tråd	-11.8457
stainstansrätten	-11.8457
▁Tidigare	-11.8457
▁växer	-11.8457
▁Either	-11.8457
▁lonely	-11.8457
▁ratificera	-11.8457
cial	-11.8457
▁alleged	-11.8457
▁sammanlagda	-11.8458
▁överstiga	-11.8458
▁neuro	-11.8458
▁grabb	-11.8458
▁possession	-11.846
▁våg	-11.8461
▁Satan	-11.8462
▁klassificeras	-11.8463
kle	-11.8463
▁indirekt	-11.8463
▁motivera	-11.8464
▁CAP	-11.8465
ily	-11.8467
▁strecksatsen	-11.8469
▁avslutat	-11.847
▁operativa	-11.847
▁crops	-11.8471
▁stamp	-11.8472
issabonstrategin	-11.8473
▁kemiska	-11.8474
▁bestånd	-11.8474
▁slagit	-11.8474
▁withdrawn	-11.8475
▁grå	-11.8475
steg	-11.8475
▁lists	-11.8476
▁slösa	-11.8477
▁nerve	-11.8477
▁Kä	-11.8478
▁tung	-11.8478
partner	-11.848
▁skulden	-11.8482
▁benen	-11.8482
▁warn	-11.8485
▁förutse	-11.8487
supplementary	-11.8487
▁Austrian	-11.8489
▁förhandlings	-11.849
▁enhance	-11.8493
▁stressed	-11.8493
(2)(	-11.8494
▁styrelse	-11.8495
Ingen	-11.8498
▁Produkt	-11.8499
kör	-11.8501
▁Bert	-11.8502
away	-11.8504
▁remained	-11.8504
tory	-11.8509
▁ark	-11.8509
▁Seth	-11.851
▁CAS	-11.8511
▁spelet	-11.8512
▁Apparently	-11.8512
▁California	-11.8512
▁NATO	-11.8512
▁Treatment	-11.8512
▁communities	-11.8512
▁economies	-11.8512
▁reliable	-11.8512
▁steady	-11.8512
▁minorities	-11.8512
▁parlamentarisk	-11.8513
▁Judge	-11.8513
▁bensin	-11.8514
▁hals	-11.8514
▁ruling	-11.8514
▁winner	-11.8515
▁utkast	-11.8515
▁twin	-11.8515
▁kvot	-11.8517
▁doctors	-11.8517
Ex	-11.8518
oir	-11.8519
fold	-11.852
▁Buck	-11.852
fort	-11.8525
▁statistiska	-11.8525
▁acknowledge	-11.8527
▁knäck	-11.8528
äk	-11.853
▁konsumtion	-11.8531
▁stations	-11.8536
▁märkt	-11.8537
Ett	-11.8539
▁offren	-11.854
▁växte	-11.854
▁hormone	-11.854
▁banker	-11.8541
▁bekräftade	-11.8541
link	-11.8544
BO	-11.8544
▁kvinnors	-11.8544
▁stranger	-11.8546
▁Girl	-11.8548
▁påverkas	-11.8549
ctic	-11.855
iest	-11.8551
▁cancel	-11.8552
▁Follow	-11.8552
country	-11.8553
▁bilaterala	-11.8554
▁cykel	-11.8554
▁ovanligt	-11.8555
▁hjärn	-11.8556
ailed	-11.8557
vul	-11.8558
–1	-11.8559
▁fiende	-11.8561
▁sole	-11.8563
▁rött	-11.8565
▁Jeremy	-11.8567
▁Treaties	-11.8567
▁council	-11.8567
▁skrämmer	-11.8567
▁tvungna	-11.8567
▁[8]	-11.8567
▁chronic	-11.8567
▁Datum	-11.8568
▁Ännu	-11.8568
▁förresten	-11.8568
▁sträck	-11.8568
▁giant	-11.8569
▁basically	-11.8569
▁Might	-11.8571
▁Sök	-11.8572
▁pussy	-11.8572
▁tuff	-11.8577
▁odds	-11.8579
▁sabba	-11.858
punkter	-11.858
▁moderate	-11.858
▁hotellet	-11.8582
▁kastar	-11.8584
▁Poor	-11.8584
▁degrees	-11.8585
99/	-11.8585
▁expenses	-11.8586
▁tillfälliga	-11.8586
▁rap	-11.8587
nation	-11.8591
▁oacceptabelt	-11.8592
åriga	-11.8592
▁col	-11.8593
▁svärd	-11.8593
▁saknade	-11.8595
▁dagliga	-11.86
▁stranden	-11.86
▁orätt	-11.86
▁kampanj	-11.8601
▁geni	-11.8602
▁affair	-11.8604
▁consequence	-11.8605
ado	-11.8605
▁seger	-11.8607
▁hotar	-11.8608
▁odla	-11.8611
▁je	-11.8614
▁enheten	-11.8616
▁rank	-11.8618
▁blockera	-11.862
▁Lincoln	-11.8623
▁prescription	-11.8623
▁vampire	-11.8623
▁hämnd	-11.8623
▁Bosnia	-11.8623
▁Vakna	-11.8623
▁uppfyllt	-11.8623
▁tub	-11.8623
▁curious	-11.8623
▁motorfordon	-11.8623
▁timing	-11.8623
▁detective	-11.8623
▁förlikning	-11.8623
▁summary	-11.8624
▁byggnad	-11.8628
▁möter	-11.8629
▁deck	-11.8629
sats	-11.8631
▁massive	-11.8632
▁äventyra	-11.8632
▁reformen	-11.8633
▁Rain	-11.8636
▁enkla	-11.8636
▁arbetsgrupp	-11.8637
▁absorption	-11.8638
▁markera	-11.8638
▁bron	-11.8638
▁author	-11.8638
▁Bil	-11.864
▁chase	-11.864
▁kommando	-11.8641
dding	-11.8641
▁25%	-11.8643
ställningen	-11.8646
▁Wh	-11.8647
▁consists	-11.8649
ägare	-11.8652
quin	-11.8654
▁Add	-11.8656
▁inriktning	-11.8657
▁brun	-11.8658
handlande	-11.8659
inate	-11.866
▁studio	-11.866
industri	-11.8663
▁ticket	-11.8663
▁700	-11.8664
ställa	-11.8665
▁återkalla	-11.8665
▁cabin	-11.8667
▁påstår	-11.8667
▁dip	-11.8668
▁kinds	-11.8668
▁expand	-11.8669
▁dys	-11.867
▁ref	-11.8673
världen	-11.8674
▁Polis	-11.8674
▁sakerna	-11.8677
▁hoppar	-11.8678
▁Olivia	-11.8679
▁navigation	-11.8679
▁plenary	-11.8679
▁NAME	-11.8679
▁Margaret	-11.8679
GUSP	-11.8679
▁sötnos	-11.8679
▁Tonight	-11.868
▁Nästan	-11.868
▁inspektion	-11.868
▁alibi	-11.8681
▁holdings	-11.8682
▁panik	-11.8683
▁tall	-11.8684
▁revised	-11.8684
▁Young	-11.8684
▁fancy	-11.8684
▁winter	-11.8685
▁Megan	-11.8685
El	-11.8686
verkar	-11.8686
▁timetable	-11.8687
▁Fax	-11.8688
▁Aj	-11.869
förande	-11.8691
▁profits	-11.8691
▁lots	-11.8692
▁utmaning	-11.8694
▁Spa	-11.8696
▁påvisa	-11.8699
▁AC	-11.8701
▁Jävlar	-11.8704
▁skapas	-11.8704
pek	-11.8705
kum	-11.8705
kläder	-11.8705
▁height	-11.8708
this	-11.871
▁primär	-11.871
▁Tryck	-11.8712
▁grundas	-11.8716
▁samling	-11.8716
cie	-11.8716
▁employed	-11.872
▁Marco	-11.872
▁Ana	-11.8721
Thank	-11.8721
signal	-11.8722
▁Haven	-11.8724
▁begått	-11.8725
EP	-11.8725
zzy	-11.8725
SO	-11.8726
shed	-11.8729
ämning	-11.8731
Me	-11.8732
[...]
